{
  "version": "1.0",
  "truncation": null,
  "padding": null,
  "added_tokens": [
    {
      "id": 0,
      "content": "<unk>",
      "single_word": false,
      "lstrip": false,
      "rstrip": false,
      "normalized": false,
      "special": true
    },
    {
      "id": 1,
      "content": "<s>",
      "single_word": false,
      "lstrip": false,
      "rstrip": false,
      "normalized": false,
      "special": true
    },
    {
      "id": 2,
      "content": "</s>",
      "single_word": false,
      "lstrip": false,
      "rstrip": false,
      "normalized": false,
      "special": true
    },
    {
      "id": 3,
      "content": "<pad>",
      "single_word": false,
      "lstrip": false,
      "rstrip": false,
      "normalized": false,
      "special": true
    },
    {
      "id": 4,
      "content": "|end_of_text|",
      "single_word": false,
      "lstrip": false,
      "rstrip": false,
      "normalized": false,
      "special": true
    }
  ],
  "normalizer": null,
  "pre_tokenizer": {
    "type": "Sequence",
    "pretokenizers": [
      {
        "type": "Split",
        "pattern": {
          "Regex": " ?[^(\\s|[.,!?…。，、।۔،])]+"
        },
        "behavior": "Isolated",
        "invert": false
      },
      {
        "type": "ByteLevel",
        "add_prefix_space": false,
        "trim_offsets": true,
        "use_regex": false
      }
    ]
  },
  "post_processor": {
    "type": "ByteLevel",
    "add_prefix_space": true,
    "trim_offsets": false,
    "use_regex": false
  },
  "decoder": {
    "type": "ByteLevel",
    "add_prefix_space": true,
    "trim_offsets": true,
    "use_regex": false
  },
  "model": {
    "type": "BPE",
    "dropout": null,
    "unk_token": null,
    "continuing_subword_prefix": null,
    "end_of_word_suffix": null,
    "fuse_unk": false,
    "byte_fallback": false,
    "ignore_merges": false,
    "vocab": {
      "<unk>": 0,
      "<s>": 1,
      "</s>": 2,
      "<pad>": 3,
      "|end_of_text|": 4,
      "!": 5,
      "\"": 6,
      "#": 7,
      "$": 8,
      "%": 9,
      "&": 10,
      "'": 11,
      "(": 12,
      ")": 13,
      "*": 14,
      "+": 15,
      ",": 16,
      "-": 17,
      ".": 18,
      "/": 19,
      "0": 20,
      "1": 21,
      "2": 22,
      "3": 23,
      "4": 24,
      "5": 25,
      "6": 26,
      "7": 27,
      "8": 28,
      "9": 29,
      ":": 30,
      ";": 31,
      "<": 32,
      "=": 33,
      ">": 34,
      "?": 35,
      "@": 36,
      "A": 37,
      "B": 38,
      "C": 39,
      "D": 40,
      "E": 41,
      "F": 42,
      "G": 43,
      "H": 44,
      "I": 45,
      "J": 46,
      "K": 47,
      "L": 48,
      "M": 49,
      "N": 50,
      "O": 51,
      "P": 52,
      "Q": 53,
      "R": 54,
      "S": 55,
      "T": 56,
      "U": 57,
      "V": 58,
      "W": 59,
      "X": 60,
      "Y": 61,
      "Z": 62,
      "[": 63,
      "\\": 64,
      "]": 65,
      "^": 66,
      "_": 67,
      "`": 68,
      "a": 69,
      "b": 70,
      "c": 71,
      "d": 72,
      "e": 73,
      "f": 74,
      "g": 75,
      "h": 76,
      "i": 77,
      "j": 78,
      "k": 79,
      "l": 80,
      "m": 81,
      "n": 82,
      "o": 83,
      "p": 84,
      "q": 85,
      "r": 86,
      "s": 87,
      "t": 88,
      "u": 89,
      "v": 90,
      "w": 91,
      "x": 92,
      "y": 93,
      "z": 94,
      "{": 95,
      "|": 96,
      "}": 97,
      "~": 98,
      "¡": 99,
      "¢": 100,
      "£": 101,
      "¤": 102,
      "¥": 103,
      "¦": 104,
      "§": 105,
      "¨": 106,
      "©": 107,
      "ª": 108,
      "«": 109,
      "¬": 110,
      "®": 111,
      "¯": 112,
      "°": 113,
      "±": 114,
      "²": 115,
      "³": 116,
      "´": 117,
      "µ": 118,
      "¶": 119,
      "·": 120,
      "¸": 121,
      "¹": 122,
      "º": 123,
      "»": 124,
      "¼": 125,
      "½": 126,
      "¾": 127,
      "¿": 128,
      "Â": 129,
      "Ã": 130,
      "Ä": 131,
      "Å": 132,
      "Æ": 133,
      "Ç": 134,
      "È": 135,
      "É": 136,
      "Ê": 137,
      "Ë": 138,
      "Ì": 139,
      "Í": 140,
      "Î": 141,
      "Ï": 142,
      "Ð": 143,
      "Ñ": 144,
      "Ò": 145,
      "Ó": 146,
      "Ô": 147,
      "Õ": 148,
      "Ö": 149,
      "×": 150,
      "Ø": 151,
      "Ù": 152,
      "Ú": 153,
      "Û": 154,
      "Ü": 155,
      "Þ": 156,
      "à": 157,
      "á": 158,
      "â": 159,
      "ã": 160,
      "ä": 161,
      "å": 162,
      "æ": 163,
      "ç": 164,
      "è": 165,
      "é": 166,
      "ê": 167,
      "ë": 168,
      "ì": 169,
      "í": 170,
      "ï": 171,
      "ð": 172,
      "ĉ": 173,
      "Ċ": 174,
      "Ġ": 175,
      "Ģ": 176,
      "ģ": 177,
      "Ĥ": 178,
      "ĥ": 179,
      "Ħ": 180,
      "ħ": 181,
      "Ĩ": 182,
      "ĩ": 183,
      "Ī": 184,
      "ī": 185,
      "Ĭ": 186,
      "ĭ": 187,
      "Į": 188,
      "į": 189,
      "İ": 190,
      "ı": 191,
      "Ĳ": 192,
      "ĳ": 193,
      "Ĵ": 194,
      "ĵ": 195,
      "Ķ": 196,
      "ķ": 197,
      "ĸ": 198,
      "Ĺ": 199,
      "ĺ": 200,
      "Ļ": 201,
      "ļ": 202,
      "Ľ": 203,
      "ľ": 204,
      "Ŀ": 205,
      "ŀ": 206,
      "Ł": 207,
      "ł": 208,
      "Ń": 209,
      "Ġt": 210,
      "Ġa": 211,
      "in": 212,
      "he": 213,
      "er": 214,
      "on": 215,
      "Ġthe": 216,
      "or": 217,
      "an": 218,
      "en": 219,
      "es": 220,
      "ed": 221,
      "Ġo": 222,
      "at": 223,
      "Ġs": 224,
      "ar": 225,
      "is": 226,
      "Ġw": 227,
      "al": 228,
      "it": 229,
      "Ġf": 230,
      "Ġof": 231,
      "nd": 232,
      "Ġin": 233,
      "re": 234,
      "Ġp": 235,
      "Ġc": 236,
      "Ġb": 237,
      "as": 238,
      "ic": 239,
      "ing": 240,
      "ĊĊ": 241,
      "Ġand": 242,
      "ion": 243,
      "ro": 244,
      "le": 245,
      "ĠS": 246,
      "Ġd": 247,
      "Ġm": 248,
      "ĠA": 249,
      "Ġto": 250,
      "ĠC": 251,
      "il": 252,
      "ou": 253,
      "Ġn": 254,
      "á»": 255,
      "Ġ1": 256,
      "ent": 257,
      "á»į": 258,
      "ĠT": 259,
      "Ġh": 260,
      "st": 261,
      "ĠM": 262,
      "am": 263,
      "Ġl": 264,
      "ÃŃ": 265,
      "el": 266,
      "om": 267,
      "áº": 268,
      "ol": 269,
      "áº¹": 270,
      "Ġ(": 271,
      "ĠÃ": 272,
      ".ĊĊ": 273,
      "ĠB": 274,
      "ur": 275,
      "ad": 276,
      "ct": 277,
      "ĠP": 278,
      "Ġ2": 279,
      "Ìģ": 280,
      "et": 281,
      "ĠI": 282,
      "ir": 283,
      "ch": 284,
      "iv": 285,
      "ig": 286,
      "ĠH": 287,
      "ers": 288,
      "ation": 289,
      "Ġre": 290,
      "un": 291,
      "Ġg": 292,
      "id": 293,
      "Ġwas": 294,
      "Ġe": 295,
      "ĠR": 296,
      "Ġfor": 297,
      "ot": 298,
      "Ġ19": 299,
      "us": 300,
      "im": 301,
      "ay": 302,
      "ĠD": 303,
      "ĠN": 304,
      "Ġon": 305,
      "Ġth": 306,
      "ce": 307,
      "ĠL": 308,
      "ĠF": 309,
      "ist": 310,
      "ra": 311,
      "ly": 312,
      "Ã¬": 313,
      "ut": 314,
      "em": 315,
      "ĠG": 316,
      "Ġ20": 317,
      "Ã¡": 318,
      "Ġis": 319,
      "Ġas": 320,
      "ter": 321,
      "ow": 322,
      "Ãł": 323,
      "ĠW": 324,
      "th": 325,
      "ĠThe": 326,
      "Ġr": 327,
      "ith": 328,
      "ul": 329,
      "and": 330,
      "ĠE": 331,
      "âĢ": 332,
      "Ġst": 333,
      "ĠJ": 334,
      "her": 335,
      "Ġbe": 336,
      "ag": 337,
      "ĠO": 338,
      "Ġal": 339,
      "os": 340,
      "áº¹Ìģ": 341,
      "Ã©": 342,
      "um": 343,
      "ÌĢ": 344,
      "est": 345,
      "Ġwith": 346,
      "Ġat": 347,
      "Ġby": 348,
      "Ġk": 349,
      "op": 350,
      "rom": 351,
      "'s": 352,
      "ver": 353,
      "ia": 354,
      "ac": 355,
      "Ġan": 356,
      "ĠK": 357,
      "ri": 358,
      "Ġde": 359,
      "oc": 360,
      "âĢĵ": 361,
      "ian": 362,
      "Ġwh": 363,
      "Ãº": 364,
      "á»įÌģ": 365,
      "Ġcon": 366,
      "Ġfrom": 367,
      "ess": 368,
      "Ġhe": 369,
      "ab": 370,
      "ĠU": 371,
      "od": 372,
      "Ġpl": 373,
      "ber": 374,
      "if": 375,
      "ain": 376,
      "ity": 377,
      "Ġv": 378,
      "all": 379,
      "Ġ\"": 380,
      "Ġthat": 381,
      "ip": 382,
      "ies": 383,
      "ate": 384,
      "av": 385,
      "Ġor": 386,
      "art": 387,
      "Ġse": 388,
      "Ġpro": 389,
      "ew": 390,
      "á»įn": 391,
      "ill": 392,
      "ak": 393,
      "Ġcom": 394,
      "up": 395,
      "ard": 396,
      "ok": 397,
      "ud": 398,
      "ort": 399,
      "19": 400,
      "ĠSt": 401,
      "pe": 402,
      "gb": 403,
      "ub": 404,
      "Ġit": 405,
      "áº¹ÌĢ": 406,
      "wá»įn": 407,
      "igh": 408,
      "ap": 409,
      "ĠnÃŃ": 410,
      "Ġj": 411,
      "ov": 412,
      "ĠĊ": 413,
      "ld": 414,
      "Ġhis": 415,
      "ary": 416,
      "ĠIn": 417,
      "qu": 418,
      "00": 419,
      "ĠCh": 420,
      "ich": 421,
      "ant": 422,
      "ish": 423,
      "Ã³": 424,
      "ge": 425,
      "á¹": 426,
      "ment": 427,
      "ĠÃł": 428,
      "ated": 429,
      "Ġ201": 430,
      "mer": 431,
      "oun": 432,
      "á¹£": 433,
      "se": 434,
      "ĠÃ¬": 435,
      "The": 436,
      "og": 437,
      ")Ċ": 438,
      "ĠV": 439,
      "our": 440,
      "end": 441,
      "fer": 442,
      "ial": 443,
      "ong": 444,
      "ive": 445,
      "ere": 446,
      "ear": 447,
      "Ġy": 448,
      "Ġch": 449,
      "ib": 450,
      "ug": 451,
      "und": 452,
      "ine": 453,
      "ast": 454,
      "ell": 455,
      "Ġex": 456,
      "ces": 457,
      "ust": 458,
      "ep": 459,
      "ore": 460,
      "Ġare": 461,
      "Ã¨": 462,
      "ction": 463,
      "so": 464,
      "Ġ200": 465,
      "ran": 466,
      "ame": 467,
      "Ġle": 468,
      "ical": 469,
      "ord": 470,
      "ie": 471,
      "ks": 472,
      "ĠUn": 473,
      "Ġwere": 474,
      "uc": 475,
      "ight": 476,
      "ost": 477,
      "Ġá»į": 478,
      "ign": 479,
      "ue": 480,
      "ric": 481,
      "),": 482,
      "tern": 483,
      "Ġni": 484,
      "ey": 485,
      "Ã²": 486,
      "ĠHe": 487,
      "Ã¹": 488,
      ".Ġ": 489,
      "ĠâĢĵ": 490,
      "Ġalso": 491,
      "Ġ|": 492,
      "20": 493,
      "ĠY": 494,
      "Ġwhich": 495,
      "Ġsh": 496,
      "Ġ18": 497,
      "rit": 498,
      "Ġar": 499,
      "Ġplay": 500,
      "cl": 501,
      "ff": 502,
      "ther": 503,
      "Ġcomp": 504,
      "ry": 505,
      "res": 506,
      "Ġte": 507,
      "man": 508,
      "ass": 509,
      "ure": 510,
      "age": 511,
      "irst": 512,
      "ire": 513,
      "ik": 514,
      "ount": 515,
      "Ġun": 516,
      "Ġ||": 517,
      "Ġ3": 518,
      "ÃĢ": 519,
      "ition": 520,
      "te": 521,
      "ond": 522,
      "port": 523,
      "ous": 524,
      "iz": 525,
      ".Ċ": 526,
      "ational": 527,
      "feren": 528,
      "ork": 529,
      "ile": 530,
      "ts": 531,
      "Re": 532,
      "Ġti": 533,
      "ĠAl": 534,
      "ide": 535,
      "erv": 536,
      "ican": 537,
      "Ġhad": 538,
      "ice": 539,
      "Ãºn": 540,
      "land": 541,
      "ang": 542,
      "ack": 543,
      "hed": 544,
      "wo": 545,
      "ations": 546,
      "ĠtÃŃ": 547,
      "ti": 548,
      "ory": 549,
      "áº¹Ìģr": 550,
      "per": 551,
      "Ġfirst": 552,
      "orn": 553,
      "ÃĢwá»įn": 554,
      "Ġnot": 555,
      "own": 556,
      "á»įÌĢ": 557,
      "Ġcl": 558,
      "Ġ199": 559,
      "ens": 560,
      "ĠIt": 561,
      "Ġres": 562,
      "ave": 563,
      "amp": 564,
      "Ġad": 565,
      "á»įÌģÃ¬": 566,
      "ome": 567,
      "Ġap": 568,
      "Ġhas": 569,
      "Ġro": 570,
      "ĠAr": 571,
      "fter": 572,
      "It": 573,
      "ferences": 574,
      "aw": 575,
      "dÃ¬": 576,
      "ĠÃ¡": 577,
      "Ġwhe": 578,
      "ater": 579,
      "ect": 580,
      "ivers": 581,
      "pl": 582,
      "ĠĊĊ": 583,
      "Ċ|": 584,
      "ec": 585,
      "ime": 586,
      "ph": 587,
      "In": 588,
      "ilm": 589,
      "ĠTh": 590,
      "Ġcont": 591,
      "sh": 592,
      "ree": 593,
      "ited": 594,
      "ach": 595,
      "ates": 596,
      "ool": 597,
      "Ġus": 598,
      "ĠMar": 599,
      "asi": 600,
      "Ġab": 601,
      "References": 602,
      "ubl": 603,
      "ru": 604,
      "to": 605,
      "ember": 606,
      "á»įÌģÃ¬dÃ¬": 607,
      "áº¹Ìģrá»įÌģÃ¬dÃ¬": 608,
      "stáº¹Ìģrá»įÌģÃ¬dÃ¬": 609,
      "ĠÃ¡stáº¹Ìģrá»įÌģÃ¬dÃ¬": 610,
      "ĠĠ": 611,
      "ob": 612,
      "merican": 613,
      "ople": 614,
      "Ġpart": 615,
      "ult": 616,
      "Ġwho": 617,
      "Ġtheir": 618,
      "over": 619,
      "ound": 620,
      "Ġ-": 621,
      "Ġits": 622,
      "ath": 623,
      "are": 624,
      "out": 625,
      "okasi": 626,
      "eb": 627,
      "cc": 628,
      "Ġher": 629,
      "eg": 630,
      "Itokasi": 631,
      "pt": 632,
      "ee": 633,
      "iss": 634,
      "Ġone": 635,
      "oll": 636,
      "ence": 637,
      "ng": 638,
      "ace": 639,
      "inal": 640,
      "Ġpe": 641,
      "oy": 642,
      "Ġbut": 643,
      "ild": 644,
      "rin": 645,
      "ĠÃ³": 646,
      "ade": 647,
      "ress": 648,
      "Ġyear": 649,
      "ĠNew": 650,
      "ite": 651,
      "clud": 652,
      "ors": 653,
      "ents": 654,
      "les": 655,
      "ward": 656,
      "chool": 657,
      "ould": 658,
      "Ġ4": 659,
      "Ġag": 660,
      "ual": 661,
      "ugh": 662,
      "Ġ198": 663,
      "for": 664,
      "Ġdi": 665,
      "gbÃł": 666,
      "oin": 667,
      "Ġen": 668,
      "Ġper": 669,
      "io": 670,
      "uring": 671,
      "Ġman": 672,
      "old": 673,
      "Ġrec": 674,
      "act": 675,
      "Ã¡n": 676,
      "wn": 677,
      "we": 678,
      "Ġsc": 679,
      "Ġim": 680,
      "oot": 681,
      "Ġtwo": 682,
      "Ġhave": 683,
      "Ġbec": 684,
      "Ġinclud": 685,
      "Ġdes": 686,
      "ĠCom": 687,
      "urn": 688,
      "ton": 689,
      "ased": 690,
      "iversity": 691,
      "ail": 692,
      "ss": 693,
      "Ġall": 694,
      "ings": 695,
      "Ġthis": 696,
      "ah": 697,
      "ball": 698,
      "ons": 699,
      "Ġfilm": 700,
      "ark": 701,
      "vel": 702,
      "18": 703,
      "aj": 704,
      "ind": 705,
      "outh": 706,
      "oh": 707,
      "Ġdis": 708,
      "Ġbeen": 709,
      "ision": 710,
      "Ġcomm": 711,
      "Ġother": 712,
      "gh": 713,
      "Ġ197": 714,
      "ted": 715,
      "ĠDe": 716,
      "ely": 717,
      "uch": 718,
      "ics": 719,
      "Ġ5": 720,
      "cent": 721,
      "ĠAmerican": 722,
      "Ġafter": 723,
      "ker": 724,
      "ury": 725,
      "ral": 726,
      "ren": 727,
      "ft": 728,
      "rÃŃ": 729,
      "ance": 730,
      "Ġib": 731,
      "gan": 732,
      "Ġoff": 733,
      "orld": 734,
      "ĠLe": 735,
      "ished": 736,
      "Ġgb": 737,
      "able": 738,
      "Ġsp": 739,
      "Ãłn": 740,
      "ram": 741,
      "ĠAn": 742,
      "Âł": 743,
      "pec": 744,
      "Ġlin": 745,
      "one": 746,
      "ne": 747,
      "olog": 748,
      "Ġup": 749,
      "ĠSh": 750,
      "way": 751,
      "ale": 752,
      "Ġout": 753,
      "ood": 754,
      "Ġpeople": 755,
      "lect": 756,
      "ions": 757,
      "Ġover": 758,
      "ai": 759,
      "ĠUniversity": 760,
      "Ġact": 761,
      "Ġ196": 762,
      "Ġserv": 763,
      "ase": 764,
      "200": 765,
      "Ġshe": 766,
      "láº¹ÌĢ": 767,
      "Ġev": 768,
      "eral": 769,
      "Ġund": 770,
      "ex": 771,
      "Ġra": 772,
      "ook": 773,
      "Ġá¹£": 774,
      "red": 775,
      "ans": 776,
      "Ġnew": 777,
      "ĠÃłwá»įn": 778,
      "rib": 779,
      "az": 780,
      "oci": 781,
      "ĠUnited": 782,
      "ists": 783,
      "Ġloc": 784,
      "ames": 785,
      "ason": 786,
      "Ġwork": 787,
      "Ġgro": 788,
      "che": 789,
      "Ġinto": 790,
      "jÃ¡": 791,
      "Ġtra": 792,
      "Ex": 793,
      "Ġthey": 794,
      "du": 795,
      "ose": 796,
      "Ġ6": 797,
      "ĠInd": 798,
      "Ġtime": 799,
      "orth": 800,
      "ann": 801,
      "ĠZ": 802,
      "ont": 803,
      "ake": 804,
      "Ġme": 805,
      "ough": 806,
      "tÃ¬": 807,
      "ife": 808,
      "Ġsec": 809,
      "Ġpre": 810,
      "Ġpol": 811,
      "ĠÃ¬gbÃł": 812,
      "Ġatt": 813,
      "ternal": 814,
      ").": 815,
      "ootball": 816,
      "ina": 817,
      "ict": 818,
      "ident": 819,
      "ock": 820,
      "ied": 821,
      "Ġam": 822,
      "Ġunder": 823,
      "ĠCol": 824,
      "Ġibi": 825,
      "ĠPro": 826,
      "rad": 827,
      "rans": 828,
      "rough": 829,
      "iel": 830,
      "vi": 831,
      "ins": 832,
      "inn": 833,
      "Ġreg": 834,
      "Ġbu": 835,
      "ĠkÃ©": 836,
      "amil": 837,
      "ublic": 838,
      "ix": 839,
      "jáº¹Ìģ": 840,
      "ĠâĢ": 841,
      "emb": 842,
      "ll": 843,
      "Ġteam": 844,
      "ick": 845,
      "Ġil": 846,
      "air": 847,
      "pr": 848,
      "oth": 849,
      "form": 850,
      "Ġop": 851,
      "overn": 852,
      "ĠÃłti": 853,
      "als": 854,
      "Ġkn": 855,
      "ative": 856,
      "ities": 857,
      "Ġass": 858,
      "ober": 859,
      "Ġlinks": 860,
      "Ġi": 861,
      "Ġbet": 862,
      "kerÃ©": 863,
      "usic": 864,
      "ĠkÃ©kerÃ©": 865,
      "Ġwould": 866,
      "Ġhim": 867,
      "ĠÃ¨": 868,
      "Ġá»įd": 869,
      "ever": 870,
      "use": 871,
      "External": 872,
      "ĠCl": 873,
      "á»įÌģn": 874,
      "Ġ194": 875,
      "ck": 876,
      "ship": 877,
      "ash": 878,
      "áº¹ÌģtÃ¬": 879,
      "Ã¡náº¹ÌģtÃ¬": 880,
      "ĠÃ¬gbÃłjÃ¡": 881,
      "Ġplayers": 882,
      "ĠplÃ¡náº¹ÌģtÃ¬": 883,
      "Ġind": 884,
      "eat": 885,
      "201": 886,
      "ĠSc": 887,
      "Ġcons": 888,
      "ollow": 889,
      "Ġ7": 890,
      "reat": 891,
      "ouse": 892,
      "Ġcan": 893,
      "Ġcent": 894,
      "Ġ195": 895,
      "Ġqu": 896,
      "ular": 897,
      "eries": 898,
      "Ġest": 899,
      "duc": 900,
      "Ġmore": 901,
      "Ġyears": 902,
      "Ġagain": 903,
      "ier": 904,
      "Ġduring": 905,
      "lish": 906,
      "bum": 907,
      "ional": 908,
      "ank": 909,
      "Ġwhen": 910,
      "ced": 911,
      "Ġsub": 912,
      "arl": 913,
      "ari": 914,
      "uro": 915,
      "der": 916,
      "ohn": 917,
      "raph": 918,
      "ĠStates": 919,
      "Ġform": 920,
      "Ġwhere": 921,
      "21": 922,
      "Ġgen": 923,
      "ĠsÃŃ": 924,
      "Ġcol": 925,
      "resent": 926,
      "Ġret": 927,
      "Ġstud": 928,
      "ley": 929,
      "ween": 930,
      "ĠlÃ¡": 931,
      "inist": 932,
      "ĠEng": 933,
      "any": 934,
      "ÅĦ": 935,
      "Ġsup": 936,
      "enn": 937,
      "Ã¬n": 938,
      "iving": 939,
      "ĠCount": 940,
      "ĠAd": 941,
      "Ġed": 942,
      "pro": 943,
      "rict": 944,
      "Ġ17": 945,
      "att": 946,
      "Ġfl": 947,
      "round": 948,
      "erman": 949,
      "Ġfound": 950,
      "iam": 951,
      "Ġspec": 952,
      "Ġrel": 953,
      "ince": 954,
      "ĠÃ²": 955,
      "Ã¹n": 956,
      "Ġco": 957,
      "ev": 958,
      "irect": 959,
      "ĠShe": 960,
      "ron": 961,
      "une": 962,
      "erson": 963,
      "lÃº": 964,
      "Ġjáº¹Ìģ": 965,
      "ĠWar": 966,
      "ague": 967,
      "ese": 968,
      "ĠFor": 969,
      "ĠOn": 970,
      "Ġonly": 971,
      "Ġabout": 972,
      "Ġacc": 973,
      "ĠÃĮ": 974,
      "Ġ8": 975,
      "ĠSchool": 976,
      "Ġmost": 977,
      "Ġbetween": 978,
      "Ġsy": 979,
      "ĠIs": 980,
      "ific": 981,
      "ating": 982,
      "ived": 983,
      "hen": 984,
      "Ġrele": 985,
      "istory": 986,
      "ĠSp": 987,
      "son": 988,
      "Ġ9": 989,
      "ept": 990,
      "Ġbir": 991,
      "uk": 992,
      "Ġso": 993,
      "Ġthree": 994,
      ")ĊĊ": 995,
      "lection": 996,
      "Ġdist": 997,
      "Ġac": 998,
      "omen": 999,
      "Ġsing": 1000,
      "Ġart": 1001,
      "arg": 1002,
      "cess": 1003,
      "Ġrem": 1004,
      "Ġlater": 1005,
      "Ġinter": 1006,
      "mp": 1007,
      "ÃŃn": 1008,
      "Ġthrough": 1009,
      "fore": 1010,
      "Ġfootball": 1011,
      "uss": 1012,
      "Ġalbum": 1013,
      "Ġend": 1014,
      "ĠComm": 1015,
      "ĠFran": 1016,
      "Ġseason": 1017,
      "Ġ193": 1018,
      "ba": 1019,
      "Ġáº¹": 1020,
      "Ġpop": 1021,
      "ĠMay": 1022,
      "ten": 1023,
      "Ġfollow": 1024,
      "Ġmade": 1025,
      "ĠWorld": 1026,
      "ĠAf": 1027,
      "Ġsecond": 1028,
      "stit": 1029,
      "ement": 1030,
      "ths": 1031,
      "ĠNational": 1032,
      "Ġati": 1033,
      "ern": 1034,
      "Ġmov": 1035,
      "Ġthem": 1036,
      "Ġthere": 1037,
      "ism": 1038,
      "erm": 1039,
      "ograph": 1040,
      "ield": 1041,
      "Ġ10": 1042,
      "iver": 1043,
      "ĠQ": 1044,
      "ĠJohn": 1045,
      "Ġused": 1046,
      "ternational": 1047,
      "Ġinv": 1048,
      "0s": 1049,
      "ject": 1050,
      "cy": 1051,
      "inu": 1052,
      "Ġmed": 1053,
      "Ġgo": 1054,
      "Ġwrit": 1055,
      "Ġnum": 1056,
      "ower": 1057,
      "arly": 1058,
      "pos": 1059,
      "Ġol": 1060,
      "ĠAs": 1061,
      "199": 1062,
      "Ġset": 1063,
      "ĠThis": 1064,
      "Ġdef": 1065,
      "ĠAust": 1066,
      "Ġthen": 1067,
      "velop": 1068,
      "Ġent": 1069,
      "ures": 1070,
      "ĠÅĦ": 1071,
      "ĠCounty": 1072,
      "ise": 1073,
      "ax": 1074,
      "Ġtrans": 1075,
      "ty": 1076,
      "Ġwon": 1077,
      "ve": 1078,
      "Ġsuch": 1079,
      "Ġbecame": 1080,
      "anu": 1081,
      "ars": 1082,
      "Ġknown": 1083,
      "Ġfamil": 1084,
      "ĠCon": 1085,
      "Ġschool": 1086,
      "ĠAm": 1087,
      "Ġpr": 1088,
      "ural": 1089,
      "Ġph": 1090,
      "Ġ16": 1091,
      "ara": 1092,
      "ĠBl": 1093,
      "Ġ15": 1094,
      "Ġrecord": 1095,
      "Ġprov": 1096,
      "oss": 1097,
      "Ġdo": 1098,
      "urch": 1099,
      "Ġinc": 1100,
      "lev": 1101,
      "ute": 1102,
      "ĠPh": 1103,
      "ĠAt": 1104,
      "Ġthan": 1105,
      "ments": 1106,
      "ugust": 1107,
      "Ġestab": 1108,
      "Ġ&": 1109,
      "ĠJu": 1110,
      "Ġlead": 1111,
      "Ġá»įdÃºn": 1112,
      "ĠBrit": 1113,
      "ta": 1114,
      "ike": 1115,
      "ni": 1116,
      "eth": 1117,
      "Ġmon": 1118,
      "Ġsome": 1119,
      "its": 1120,
      "ays": 1121,
      "ĠSouth": 1122,
      "tain": 1123,
      "til": 1124,
      "Ġfour": 1125,
      "Ġcount": 1126,
      "ĠYork": 1127,
      "rist": 1128,
      "-s": 1129,
      "Ġseries": 1130,
      "Ġbi": 1131,
      "Ã¡Ãł": 1132,
      "ĠOr": 1133,
      "let": 1134,
      "Ġno": 1135,
      "ampion": 1136,
      "Ġbeing": 1137,
      "ati": 1138,
      "Ġráº¹ÌĢ": 1139,
      "Ġbl": 1140,
      "other": 1141,
      "ys": 1142,
      "arn": 1143,
      "ĠPl": 1144,
      "Ġcall": 1145,
      "ĠNov": 1146,
      "ĠGerman": 1147,
      "eptember": 1148,
      "overnment": 1149,
      "Ġgroup": 1150,
      "Ġsong": 1151,
      "istor": 1152,
      "Ġsign": 1153,
      "ĠAugust": 1154,
      "Ġwell": 1155,
      "ĠĠĠĠ": 1156,
      "Ġdirect": 1157,
      "Ġappe": 1158,
      "Ġincluding": 1159,
      "ĠMarch": 1160,
      "ians": 1161,
      "ology": 1162,
      "Ġob": 1163,
      "ke": 1164,
      "je": 1165,
      "Ġpolit": 1166,
      "amed": 1167,
      "ĠCan": 1168,
      "22": 1169,
      "Ġagainst": 1170,
      "ctober": 1171,
      "arri": 1172,
      "areer": 1173,
      "stem": 1174,
      "ather": 1175,
      "Ġint": 1176,
      "lege": 1177,
      "ract": 1178,
      "Ġfun": 1179,
      "000": 1180,
      "very": 1181,
      "ull": 1182,
      "rid": 1183,
      "Ġdec": 1184,
      "ety": 1185,
      "17": 1186,
      "Ġbefore": 1187,
      "Ġadd": 1188,
      "ĠbÃŃ": 1189,
      "ered": 1190,
      "els": 1191,
      "aid": 1192,
      "fess": 1193,
      "bÃŃ": 1194,
      "anuary": 1195,
      "ae": 1196,
      "Ġdeath": 1197,
      "af": 1198,
      "ĠSeptember": 1199,
      "=\"": 1200,
      "wards": 1201,
      "pril": 1202,
      "dÃ¨": 1203,
      "ef": 1204,
      "Ġbro": 1205,
      "Ġrece": 1206,
      "ĠJune": 1207,
      "Ġsur": 1208,
      "my": 1209,
      "Ġwhile": 1210,
      "ution": 1211,
      "rand": 1212,
      "má»į": 1213,
      "ives": 1214,
      "ĠCent": 1215,
      "Ġshow": 1216,
      "ĠOctober": 1217,
      "Ġoffic": 1218,
      "já»į": 1219,
      "Ġmusic": 1220,
      "Ġcap": 1221,
      "owever": 1222,
      "Ġwá»įÌģn": 1223,
      "oman": 1224,
      "mber": 1225,
      "Ġrep": 1226,
      "Ġá¹£e": 1227,
      "Ch": 1228,
      "resident": 1229,
      "eng": 1230,
      "ĠTe": 1231,
      "ĠJuly": 1232,
      "ired": 1233,
      "ĠAb": 1234,
      "born": 1235,
      "ized": 1236,
      "lu": 1237,
      "elf": 1238,
      "ox": 1239,
      "Ġown": 1240,
      "au": 1241,
      "gram": 1242,
      "ĠGe": 1243,
      "Ġmay": 1244,
      "Ġuntil": 1245,
      "pect": 1246,
      "ission": 1247,
      "Ġdevelop": 1248,
      "Ġawá»įn": 1249,
      "-cent": 1250,
      "Ġoper": 1251,
      "ica": 1252,
      "Ġchar": 1253,
      "á»Į": 1254,
      "ĠfÃºn": 1255,
      "cember": 1256,
      "ĠAss": 1257,
      "Ġboth": 1258,
      "Ġmany": 1259,
      "ĠEuro": 1260,
      "ĠJanuary": 1261,
      "198": 1262,
      "Ġorig": 1263,
      "embers": 1264,
      "Ġ12": 1265,
      "uth": 1266,
      "16": 1267,
      "10": 1268,
      "Ġlife": 1269,
      "ior": 1270,
      "ĠRe": 1271,
      "lÃ©": 1272,
      "ĠApril": 1273,
      "ting": 1274,
      "ris": 1275,
      "Ġmod": 1276,
      "arm": 1277,
      "ird": 1278,
      "Ġformer": 1279,
      "Ġhigh": 1280,
      "led": 1281,
      "Ġmain": 1282,
      "Ġfamily": 1283,
      "ĠState": 1284,
      "ka": 1285,
      "Ġdem": 1286,
      "Ġexp": 1287,
      "imes": 1288,
      "ket": 1289,
      "ĠNovember": 1290,
      "ital": 1291,
      "ĠPol": 1292,
      "ple": 1293,
      "ulation": 1294,
      "Ġdif": 1295,
      "Ġnumber": 1296,
      "Ġname": 1297,
      "Ġgu": 1298,
      "Ġbuild": 1299,
      "ĠWh": 1300,
      "Ġcre": 1301,
      "ĠAustral": 1302,
      "Ġplayed": 1303,
      "Ġem": 1304,
      "por": 1305,
      "ĠGu": 1306,
      "-century": 1307,
      "ĠnÃ¡Ãł": 1308,
      "Ġbirths": 1309,
      "ently": 1310,
      "ets": 1311,
      "Ġann": 1312,
      "ĠLeague": 1313,
      "ĠDecember": 1314,
      "de": 1315,
      "ants": 1316,
      "ajor": 1317,
      "ĠCal": 1318,
      "Ġback": 1319,
      "won": 1320,
      "ĠAfric": 1321,
      "ampionship": 1322,
      "the": 1323,
      "ĠMan": 1324,
      "Ġdesc": 1325,
      "ret": 1326,
      "ĠÃĢ": 1327,
      "ká»įÌģ": 1328,
      "lor": 1329,
      "ved": 1330,
      "Ġstart": 1331,
      "On": 1332,
      "Ġsm": 1333,
      "Ġna": 1334,
      "ĠtÃ³": 1335,
      "ium": 1336,
      "Ġwey": 1337,
      "ebru": 1338,
      "ĠEd": 1339,
      "apan": 1340,
      "ebruary": 1341,
      "Ġje": 1342,
      "ĠBritish": 1343,
      "isc": 1344,
      "Ġsever": 1345,
      "Ġreleased": 1346,
      "ĠAll": 1347,
      "ĠNorth": 1348,
      "ĠKing": 1349,
      "Ġdesign": 1350,
      "rop": 1351,
      "yn": 1352,
      "ared": 1353,
      "Ġ14": 1354,
      "ines": 1355,
      "Ġelect": 1356,
      "See": 1357,
      "Ġmen": 1358,
      "Ġfilms": 1359,
      "Ġprodu": 1360,
      "icip": 1361,
      "amb": 1362,
      "ata": 1363,
      "Ġgame": 1364,
      "ery": 1365,
      "ĠRep": 1366,
      "Ġpublic": 1367,
      "Ġorgan": 1368,
      "Ġstate": 1369,
      "ĠII": 1370,
      "Ġsi": 1371,
      "ient": 1372,
      "ada": 1373,
      "American": 1374,
      "Ġpar": 1375,
      "urr": 1376,
      "ĠWill": 1377,
      "ross": 1378,
      "ane": 1379,
      "ĠCity": 1380,
      "ĠnÃŃn": 1381,
      "St": 1382,
      "Ġext": 1383,
      "Ġarea": 1384,
      "oard": 1385,
      "Ġbas": 1386,
      "ÃŃrÃŃ": 1387,
      "15": 1388,
      "cept": 1389,
      ").ĊĊ": 1390,
      "Ġsystem": 1391,
      "Ġopen": 1392,
      "hip": 1393,
      "ports": 1394,
      "Ġfeat": 1395,
      "com": 1396,
      "Ġmat": 1397,
      "Ġtit": 1398,
      "ography": 1399,
      "ĠEurope": 1400,
      "ator": 1401,
      "cer": 1402,
      "..": 1403,
      "Ġrun": 1404,
      "con": 1405,
      "rench": 1406,
      "ove": 1407,
      "levision": 1408,
      "Ġfin": 1409,
      "Ġ13": 1410,
      "ze": 1411,
      "ĠorÃŃ": 1412,
      "ruct": 1413,
      "ages": 1414,
      "vent": 1415,
      "Ġfinal": 1416,
      "ually": 1417,
      "ĠFebruary": 1418,
      "Ġpubl": 1419,
      "ĠâĢĶ": 1420,
      "ause": 1421,
      "ĠBro": 1422,
      "Ġsame": 1423,
      "Ġdep": 1424,
      "Ġchild": 1425,
      "Ġagb": 1426,
      "ung": 1427,
      "Ġkan": 1428,
      "ott": 1429,
      "ĠCar": 1430,
      "yl": 1431,
      "197": 1432,
      "ana": 1433,
      "ven": 1434,
      "ĠReg": 1435,
      "Ġcalled": 1436,
      "ivision": 1437,
      "Ġwill": 1438,
      "Ġ'": 1439,
      "ká»į": 1440,
      "ices": 1441,
      "view": 1442,
      "ham": 1443,
      "ilt": 1444,
      "ales": 1445,
      "sp": 1446,
      "Ġlong": 1447,
      "Ġcareer": 1448,
      "Ġne": 1449,
      "Ġcommun": 1450,
      "âĢĻ": 1451,
      "Ġá»įmá»į": 1452,
      "ilit": 1453,
      "illion": 1454,
      "ÃłÃ¬": 1455,
      "ible": 1456,
      "ility": 1457,
      "ster": 1458,
      "Ġreturn": 1459,
      "Ġprogram": 1460,
      "lished": 1461,
      "ĠlÃ¡ti": 1462,
      "Ġinst": 1463,
      "23": 1464,
      "ange": 1465,
      "aking": 1466,
      "Ġair": 1467,
      "ĠDist": 1468,
      "ally": 1469,
      "Ġbook": 1470,
      "Ġnear": 1471,
      "ially": 1472,
      ".ĠĊĊ": 1473,
      "Ġjoin": 1474,
      "Ġdey": 1475,
      "ised": 1476,
      "Ġ11": 1477,
      "anc": 1478,
      "Ġlist": 1479,
      "ĠBe": 1480,
      "ful": 1481,
      "Ġearly": 1482,
      "Ġá»Į": 1483,
      "ner": 1484,
      "ured": 1485,
      "ival": 1486,
      "angu": 1487,
      "ode": 1488,
      "ĠPart": 1489,
      "Ġwomen": 1490,
      "ble": 1491,
      "ĠPar": 1492,
      "Ġgovernment": 1493,
      "Ġáº¹ÌĢ": 1494,
      "orks": 1495,
      "ony": 1496,
      "adem": 1497,
      "Ġseveral": 1498,
      "ĠCollege": 1499,
      "orm": 1500,
      "Ġfollowing": 1501,
      "-l": 1502,
      "ights": 1503,
      "Ġmet": 1504,
      "ience": 1505,
      "Ġ2010": 1506,
      "ped": 1507,
      "ĠBar": 1508,
      "Ġoriginal": 1509,
      "ÃłÃ¬j": 1510,
      "ĠEl": 1511,
      "Ġwe": 1512,
      "Ġlaw": 1513,
      "ĠHar": 1514,
      "ÃŃrÃŃÃł": 1515,
      "Ġá»įÌĢ": 1516,
      "Ġsince": 1517,
      "Ġproduc": 1518,
      "ĠnÃŃnÃº": 1519,
      "Ġ2017": 1520,
      "Ġsuc": 1521,
      "ĠEx": 1522,
      "ĠChrist": 1523,
      "Ġ2011": 1524,
      "reen": 1525,
      "Ġany": 1526,
      "ko": 1527,
      "Ġnamed": 1528,
      "ended": 1529,
      "Ġhead": 1530,
      "su": 1531,
      "ĠWest": 1532,
      "Ġdr": 1533,
      "ĠNÃłÃ¬j": 1534,
      "Ġcompet": 1535,
      "kan": 1536,
      "tle": 1537,
      "ĠGeor": 1538,
      "ĠUS": 1539,
      "ided": 1540,
      "Ġcity": 1541,
      "Ġbegan": 1542,
      "Ġá»įj": 1543,
      "ĠJapan": 1544,
      "Ġmembers": 1545,
      "iness": 1546,
      "He": 1547,
      "Ġinf": 1548,
      "Ġbel": 1549,
      "ĠMc": 1550,
      "Ġdid": 1551,
      "omin": 1552,
      "Ġplace": 1553,
      "ourn": 1554,
      "me": 1555,
      "Ġbased": 1556,
      "ourt": 1557,
      "Ġprom": 1558,
      "Ġthese": 1559,
      "Ġlocal": 1560,
      "Ġheld": 1561,
      "alth": 1562,
      "Ġer": 1563,
      "Ġland": 1564,
      "iger": 1565,
      "ington": 1566,
      "ĠNÃłÃ¬jÃŃrÃŃÃł": 1567,
      "á¹£áº¹Ìģ": 1568,
      "Ġpass": 1569,
      "ĠSw": 1570,
      "Ġla": 1571,
      "ole": 1572,
      "hes": 1573,
      "eople": 1574,
      "atic": 1575,
      "Ġmin": 1576,
      "Ġtown": 1577,
      "by": 1578,
      "ounc": 1579,
      "Ġdisc": 1580,
      "jÃº": 1581,
      "ondon": 1582,
      "Ġclass": 1583,
      "Ġ2014": 1584,
      "12": 1585,
      "ious": 1586,
      "Th": 1587,
      "urg": 1588,
      "Ġtr": 1589,
      "ctions": 1590,
      "Ġdescrib": 1591,
      "ained": 1592,
      "Ġ2012": 1593,
      "Ġ2008": 1594,
      "Ġeff": 1595,
      "Ġapp": 1596,
      "ĠEnglish": 1597,
      "row": 1598,
      "Ġ2016": 1599,
      "que": 1600,
      "Ġmember": 1601,
      "Ġalign": 1602,
      "Ġcomple": 1603,
      "Ġeng": 1604,
      "Ġpoin": 1605,
      "Ġuse": 1606,
      "ĠSe": 1607,
      "Ġprofess": 1608,
      "Ġsupport": 1609,
      "Ġperson": 1610,
      "Ġ2015": 1611,
      "Ġfi": 1612,
      "ociation": 1613,
      "ĠHis": 1614,
      "14": 1615,
      "Ġ2013": 1616,
      "ĠAir": 1617,
      "Ġband": 1618,
      "ically": 1619,
      "ains": 1620,
      "ĠThey": 1621,
      "Ġestablished": 1622,
      "ĠsÃ¬": 1623,
      "Ġ2009": 1624,
      "196": 1625,
      "Ġclub": 1626,
      "Ġ2019": 1627,
      "Ġocc": 1628,
      "Ġpos": 1629,
      "itions": 1630,
      "ĠHer": 1631,
      "Ġ190": 1632,
      "Ġalong": 1633,
      "ĠDistrict": 1634,
      "Ġleg": 1635,
      "aced": 1636,
      "Ġeach": 1637,
      "ats": 1638,
      "ps": 1639,
      "ĠGen": 1640,
      "-d": 1641,
      "ford": 1642,
      "Ġ,": 1643,
      "Ġ2020": 1644,
      "iy": 1645,
      "rew": 1646,
      "Ġsim": 1647,
      "Ġstr": 1648,
      "ĠAnd": 1649,
      "-f": 1650,
      "ede": 1651,
      "ĠAfter": 1652,
      "ĠFrench": 1653,
      "usiness": 1654,
      "ĠBr": 1655,
      "ĠRuss": 1656,
      "chn": 1657,
      "-b": 1658,
      "ĠHigh": 1659,
      "ociety": 1660,
      "Ġelection": 1661,
      "med": 1662,
      "aster": 1663,
      "Ġvill": 1664,
      "Ġsmall": 1665,
      "ĠlÃ³": 1666,
      "Ġcharact": 1667,
      "ĠÃĵ": 1668,
      "col": 1669,
      "yle": 1670,
      "Ã¬ÃŃ": 1671,
      "ĠX": 1672,
      "uf": 1673,
      "Ġlocated": 1674,
      "Ġ2018": 1675,
      "ĠChampionship": 1676,
      "ĠLondon": 1677,
      "ino": 1678,
      "ky": 1679,
      "ĠMed": 1680,
      "ĠRo": 1681,
      "eter": 1682,
      "side": 1683,
      "augh": 1684,
      "13": 1685,
      "ien": 1686,
      "Ġ2007": 1687,
      "Ġappro": 1688,
      "Ġstation": 1689,
      "ĠWilliam": 1690,
      "ĠPr": 1691,
      "Ġ189": 1692,
      "Al": 1693,
      "ocial": 1694,
      "aving": 1695,
      "oung": 1696,
      "Ġmajor": 1697,
      "ĠCo": 1698,
      "ille": 1699,
      "ĠEn": 1700,
      "uthor": 1701,
      "ĠItal": 1702,
      "Ġwá»įn": 1703,
      "Ġtook": 1704,
      "ization": 1705,
      "lymp": 1706,
      "ches": 1707,
      "ĠSec": 1708,
      "ief": 1709,
      "kÃł": 1710,
      "ouncil": 1711,
      "aul": 1712,
      "Ġborn": 1713,
      "Ġcompany": 1714,
      "Ġnational": 1715,
      "ĠInternational": 1716,
      "ĠCup": 1717,
      "Ġcar": 1718,
      "Ġhouse": 1719,
      "Ġstat": 1720,
      "ori": 1721,
      "Ġserved": 1722,
      "aus": 1723,
      "Ġgeneral": 1724,
      "Ġ2006": 1725,
      "vers": 1726,
      "Ġhome": 1727,
      "estern": 1728,
      "ality": 1729,
      "ĠAmer": 1730,
      "Ġpublished": 1731,
      "Ġ.": 1732,
      "Ġvi": 1733,
      "ined": 1734,
      "Ġsl": 1735,
      "Ġworld": 1736,
      "Ġpopulation": 1737,
      "ĠDav": 1738,
      "iet": 1739,
      "rol": 1740,
      "Ġevent": 1741,
      "Ġcentury": 1742,
      ")Ġ(": 1743,
      "erg": 1744,
      "ified": 1745,
      "ration": 1746,
      "Ġif": 1747,
      "ĠilÃ©": 1748,
      "Ġel": 1749,
      "Ġep": 1750,
      "Ġvari": 1751,
      "Ġcould": 1752,
      "Ġline": 1753,
      "Ġspecies": 1754,
      "ording": 1755,
      "Ġdue": 1756,
      "ÃĮ": 1757,
      "ĠCor": 1758,
      "earch": 1759,
      "ote": 1760,
      "Ġold": 1761,
      "aces": 1762,
      "ffic": 1763,
      "Ġlo": 1764,
      "Ġtelevision": 1765,
      "ling": 1766,
      "ama": 1767,
      "leg": 1768,
      "raft": 1769,
      "ja": 1770,
      "Ġmanag": 1771,
      "Ġgames": 1772,
      "arge": 1773,
      "th-century": 1774,
      "adio": 1775,
      "Ġ25": 1776,
      "Ġhel": 1777,
      "ĠAct": 1778,
      "Ġip": 1779,
      "Ġreceived": 1780,
      "aim": 1781,
      "ĠOl": 1782,
      "ĠAng": 1783,
      "ĠRec": 1784,
      "Ġplayer": 1785,
      "Ġdeb": 1786,
      "ature": 1787,
      "ored": 1788,
      "Ġterm": 1789,
      "ani": 1790,
      "ĠHowever": 1791,
      "of": 1792,
      "Ġty": 1793,
      "sÃŃ": 1794,
      "yÃłn": 1795,
      "artment": 1796,
      "Ġbuilt": 1797,
      "Ġ30": 1798,
      "Ġconst": 1799,
      "Ġaround": 1800,
      "ately": 1801,
      "11": 1802,
      "aint": 1803,
      "Ġ$": 1804,
      "Ġsingle": 1805,
      "Ġsuccess": 1806,
      "Ġ192": 1807,
      "Ġpost": 1808,
      ".,": 1809,
      "Ġeduc": 1810,
      "ilitary": 1811,
      "Ġlast": 1812,
      "anguage": 1813,
      "ki": 1814,
      "ords": 1815,
      "uman": 1816,
      "idd": 1817,
      "ĠArt": 1818,
      "ummer": 1819,
      "ency": 1820,
      "pa": 1821,
      "arried": 1822,
      "par": 1823,
      "na": 1824,
      "ald": 1825,
      "Ġcontinu": 1826,
      "Ġvers": 1827,
      "rÃ©": 1828,
      "reet": 1829,
      "Ġhistory": 1830,
      "ĠSy": 1831,
      "ĠSan": 1832,
      "ler": 1833,
      "ĠSup": 1834,
      "Ġrequ": 1835,
      "iforn": 1836,
      "Ġdown": 1837,
      "Ġtop": 1838,
      "Ġshort": 1839,
      "tt": 1840,
      "center": 1841,
      "Ġdet": 1842,
      "ĠRes": 1843,
      "ides": 1844,
      "Ġrest": 1845,
      "Ã³n": 1846,
      "Ġrepresent": 1847,
      "ĠAg": 1848,
      "Ġadv": 1849,
      "bi": 1850,
      "wÃ©": 1851,
      "Ġage": 1852,
      "Ġpresent": 1853,
      "ĠIndian": 1854,
      "Living": 1855,
      "Un": 1856,
      "ji": 1857,
      "akes": 1858,
      "ye": 1859,
      "ifornia": 1860,
      "kÃ³": 1861,
      "ĠarÃ¡": 1862,
      "Ġgba": 1863,
      "Ġnow": 1864,
      "Ġred": 1865,
      "ĠParty": 1866,
      "Ġday": 1867,
      "ĠComp": 1868,
      "Ġsaid": 1869,
      "Ġdescribed": 1870,
      "Ġleft": 1871,
      "Ġ0": 1872,
      "lin": 1873,
      "iven": 1874,
      "Ġ188": 1875,
      "ene": 1876,
      "Ġfive": 1877,
      "jÃ¬": 1878,
      "ĠMinist": 1879,
      "Ġorder": 1880,
      "iod": 1881,
      "ring": 1882,
      "ument": 1883,
      "oor": 1884,
      "An": 1885,
      "osp": 1886,
      "conom": 1887,
      "Ġsix": 1888,
      "Ġthird": 1889,
      "Ġ2005": 1890,
      "arch": 1891,
      "á¹£Ã¹": 1892,
      "Ġdiffer": 1893,
      "ĠHouse": 1894,
      "-Ã¨": 1895,
      "Ġson": 1896,
      "oon": 1897,
      "ison": 1898,
      "Ġref": 1899,
      "Ġtri": 1900,
      "reg": 1901,
      "urther": 1902,
      "sc": 1903,
      "pÃŃn": 1904,
      "right": 1905,
      "Ġwithin": 1906,
      "Ġnorth": 1907,
      "nÃ¬": 1908,
      "ĠPhil": 1909,
      "Ġcamp": 1910,
      "195": 1911,
      "ĠPark": 1912,
      "Ġreport": 1913,
      "Ġinclude": 1914,
      "ones": 1915,
      "Ġ24": 1916,
      "ether": 1917,
      "Ã¼": 1918,
      "hem": 1919,
      "lands": 1920,
      "ĠNiger": 1921,
      "umb": 1922,
      "ĠCalifornia": 1923,
      "ĠMe": 1924,
      "Ġdied": 1925,
      "ĠAward": 1926,
      "ĠGl": 1927,
      "Ġresult": 1928,
      "oyal": 1929,
      "ĠLa": 1930,
      "ĠDep": 1931,
      "Ġannoun": 1932,
      "though": 1933,
      "Ġ2021": 1934,
      "ues": 1935,
      "ĠNo": 1936,
      "lÃ¡": 1937,
      "ĠAc": 1938,
      "Ġwar": 1939,
      "oph": 1940,
      "co": 1941,
      "minist": 1942,
      "pin": 1943,
      "Ġconsid": 1944,
      "Ġround": 1945,
      "ĠĊ|": 1946,
      "ively": 1947,
      "Ġincluded": 1948,
      "Ġlati": 1949,
      "ĠIndia": 1950,
      "Ġchildren": 1951,
      "dom": 1952,
      "Ġallow": 1953,
      "Ġbecause": 1954,
      "wa": 1955,
      "ile-": 1956,
      "Ġlarg": 1957,
      "ridge": 1958,
      "Ġmark": 1959,
      "ference": 1960,
      "Ġlike": 1961,
      "eek": 1962,
      "ĠNai": 1963,
      "Ar": 1964,
      "ĠMon": 1965,
      "ody": 1966,
      "rag": 1967,
      "Ġconf": 1968,
      "Ġcor": 1969,
      "Ġmillion": 1970,
      "ideo": 1971,
      "ĠMal": 1972,
      "iti": 1973,
      "Ġdistrict": 1974,
      "ush": 1975,
      "Ġstand": 1976,
      "Ġsouth": 1977,
      "ĠorÃŃláº¹ÌĢ": 1978,
      "Ġwin": 1979,
      "ola": 1980,
      "ĠÃ¬lÃº": 1981,
      "Ġpower": 1982,
      "Ġwa": 1983,
      "ĠPer": 1984,
      "bÃ¡": 1985,
      "-Ã¨dÃ¨": 1986,
      "otes": 1987,
      "Ġresp": 1988,
      "Ġbuilding": 1989,
      "Ġvillage": 1990,
      "Ġmale": 1991,
      "ily": 1992,
      "ivil": 1993,
      "omb": 1994,
      "yÃ©": 1995,
      "jo": 1996,
      "ext": 1997,
      "Ġtrad": 1998,
      "rain": 1999,
      "Ġcountry": 2000,
      "Ġiláº¹ÌĢ": 2001,
      "ya": 2002,
      "inning": 2003,
      "ĠEngland": 2004,
      "ĠPort": 2005,
      "iber": 2006,
      "Ġcrit": 2007,
      ".Ġ(": 2008,
      "vious": 2009,
      "Ġ2004": 2010,
      "ched": 2011,
      "Ġappear": 2012,
      "Ġlit": 2013,
      "ĠRiver": 2014,
      "ament": 2015,
      "Ġincre": 2016,
      "Ġawon": 2017,
      "Ġlarge": 2018,
      "ĠSociety": 2019,
      "Ġ2000": 2020,
      "ĠOlymp": 2021,
      "ards": 2022,
      "epend": 2023,
      "Ġdifferent": 2024,
      "Ġjáº¹": 2025,
      "Ġarch": 2026,
      "ĠThere": 2027,
      "Ġlá»į": 2028,
      "Ġauthor": 2029,
      "useum": 2030,
      "People": 2031,
      "Ġjust": 2032,
      "ĠTr": 2033,
      "-m": 2034,
      "Ġservice": 2035,
      "History": 2036,
      "ert": 2037,
      "Ġfield": 2038,
      "Ġstill": 2039,
      "riend": 2040,
      "Ġke": 2041,
      "ĠĠ(": 2042,
      "Ġaddition": 2043,
      "Ġara": 2044,
      "ĠĊĠĊ": 2045,
      "Ġrepl": 2046,
      "anish": 2047,
      "Ġcurr": 2048,
      "Ġnon": 2049,
      "Ġexper": 2050,
      "Ġactiv": 2051,
      "Ġcr": 2052,
      "Ġperiod": 2053,
      "ering": 2054,
      "ĠAustralia": 2055,
      "adian": 2056,
      "ense": 2057,
      "Ġarr": 2058,
      "rÃ²": 2059,
      "ini": 2060,
      "gbo": 2061,
      "roup": 2062,
      "Ġninu": 2063,
      "off": 2064,
      "Ġdel": 2065,
      "ries": 2066,
      "Ġrefer": 2067,
      "ico": 2068,
      "á¹£Ã¨": 2069,
      "tá»įÌģ": 2070,
      "-w": 2071,
      "ĠMich": 2072,
      "Ġled": 2073,
      "Ġequ": 2074,
      "Ġwater": 2075,
      "alf": 2076,
      "ests": 2077,
      "ney": 2078,
      "Ġthose": 2079,
      "ops": 2080,
      "tal": 2081,
      "Ġdeaths": 2082,
      "ested": 2083,
      "ĠHistor": 2084,
      "Ġbusiness": 2085,
      "ĠEast": 2086,
      "Ã¶": 2087,
      "Ġmoved": 2088,
      "ĠChurch": 2089,
      "ves": 2090,
      "ĠSch": 2091,
      "stitute": 2092,
      "ĠSm": 2093,
      "Ġ21": 2094,
      "yÃŃ": 2095,
      "194": 2096,
      "ha": 2097,
      "Ġhand": 2098,
      "ness": 2099,
      "lá»į": 2100,
      "Ġanother": 2101,
      "pÃŃnláº¹ÌĢ": 2102,
      "-t": 2103,
      "ournal": 2104,
      "rem": 2105,
      "Ġvis": 2106,
      "ander": 2107,
      "ĠDem": 2108,
      "Ġinternational": 2109,
      "Ġnov": 2110,
      "urs": 2111,
      "Ġport": 2112,
      "ĠArmy": 2113,
      "Ġhistor": 2114,
      "Ġfem": 2115,
      "Ġperform": 2116,
      "avy": 2117,
      "hern": 2118,
      "Ġ2003": 2119,
      "ruction": 2120,
      "Ġamong": 2121,
      "ize": 2122,
      "gun": 2123,
      "ours": 2124,
      "ago": 2125,
      "Ġes": 2126,
      "ĠwÃł": 2127,
      "abor": 2128,
      "Ġ2022": 2129,
      "aff": 2130,
      "ĠCouncil": 2131,
      "atch": 2132,
      "Ġfac": 2133,
      "ĠpÃ©": 2134,
      "Ġspe": 2135,
      "Ġkill": 2136,
      "yÃ¬n": 2137,
      "raw": 2138,
      "ĠGeorge": 2139,
      "ption": 2140,
      "Ġannounced": 2141,
      "uel": 2142,
      "pá»įÌĢ": 2143,
      "Ġtitle": 2144,
      "Ġfather": 2145,
      "-p": 2146,
      "Ġsit": 2147,
      "Ġ186": 2148,
      "Ġship": 2149,
      "ister": 2150,
      "lo": 2151,
      "ugg": 2152,
      "Ġcult": 2153,
      "ribut": 2154,
      "ĠFrance": 2155,
      "Ġpolitic": 2156,
      "Ġcharacter": 2157,
      "Ġbest": 2158,
      "Ġ22": 2159,
      "ĠBel": 2160,
      "read": 2161,
      "ĠAp": 2162,
      "iment": 2163,
      "Ġside": 2164,
      "uck": 2165,
      "ms": 2166,
      "Ġcompos": 2167,
      "-y": 2168,
      "BC": 2169,
      "cast": 2170,
      "Ġsk": 2171,
      "ĠPresident": 2172,
      "gin": 2173,
      "men": 2174,
      "Ġstyle": 2175,
      "Ġ23": 2176,
      "ĠEm": 2177,
      "work": 2178,
      "âĢĿ": 2179,
      "Ġ187": 2180,
      "As": 2181,
      "Ġav": 2182,
      "ases": 2183,
      "be": 2184,
      "attle": 2185,
      "Ġrole": 2186,
      "line": 2187,
      "Ġestablish": 2188,
      "mit": 2189,
      "ope": 2190,
      "Ġpresident": 2191,
      "Ġmen's": 2192,
      "ĠRD": 2193,
      "ĠkÃŃ": 2194,
      "Ġmake": 2195,
      "alk": 2196,
      "Ġprofessional": 2197,
      "Ġlate": 2198,
      "orthern": 2199,
      "formation": 2200,
      "Ġaff": 2201,
      "Ġget": 2202,
      "Ġproject": 2203,
      "Ġaward": 2204,
      "ida": 2205,
      "Ġoften": 2206,
      "Ġdebut": 2207,
      "Ġappoin": 2208,
      "itar": 2209,
      "ground": 2210,
      "itor": 2211,
      "acks": 2212,
      "ania": 2213,
      "Ġfe": 2214,
      "ĠQu": 2215,
      "Ġpres": 2216,
      "Ġpolitical": 2217,
      "mi": 2218,
      "ĠRoman": 2219,
      "ĠAssociation": 2220,
      "Ġvery": 2221,
      "lex": 2222,
      "Ġepis": 2223,
      "ĠBra": 2224,
      "Ġsol": 2225,
      "âĢĶ": 2226,
      "irl": 2227,
      "Ġprin": 2228,
      "Ġlevel": 2229,
      "ĠmÃ¡": 2230,
      "Ġmag": 2231,
      "ĠAfrica": 2232,
      "ĠAmerica": 2233,
      "wÃ²": 2234,
      "ĠGeneral": 2235,
      "ploy": 2236,
      "ĠRober": 2237,
      "Ġ\"The": 2238,
      "Ġprevious": 2239,
      "Ġpat": 2240,
      "ought": 2241,
      "app": 2242,
      "Ġsold": 2243,
      "Ġcover": 2244,
      "Ġ28": 2245,
      "Ġway": 2246,
      "ĠEuropean": 2247,
      "ivid": 2248,
      "Ġweb": 2249,
      "day": 2250,
      "ults": 2251,
      "ĠThom": 2252,
      "ape": 2253,
      "forman": 2254,
      "ĠDivision": 2255,
      "50": 2256,
      "Ġengine": 2257,
      "Ġcame": 2258,
      "Ġeven": 2259,
      "la": 2260,
      ",Ġ": 2261,
      "ael": 2262,
      "Ġread": 2263,
      "ellow": 2264,
      "ĠDavid": 2265,
      "ĠAfrican": 2266,
      "rote": 2267,
      "Ġ27": 2268,
      "omet": 2269,
      "Ġwritten": 2270,
      "Ġgrad": 2271,
      "ena": 2272,
      "outher": 2273,
      "Ġofficial": 2274,
      "ele": 2275,
      "unicip": 2276,
      "ĠMor": 2277,
      "ĠÃĴ": 2278,
      "eration": 2279,
      "Ġval": 2280,
      "ams": 2281,
      "umni": 2282,
      "ĠQue": 2283,
      "han": 2284,
      "má»įÌĢ": 2285,
      "Ġimport": 2286,
      "ĠâĢľ": 2287,
      "outhern": 2288,
      "ĠSen": 2289,
      "gbe": 2290,
      "ĠOne": 2291,
      "Ġfact": 2292,
      "posed": 2293,
      "Ġ26": 2294,
      "Ġworks": 2295,
      "193": 2296,
      "reed": 2297,
      "astern": 2298,
      "Ġturn": 2299,
      "ville": 2300,
      "ĠChar": 2301,
      "á¹£áº¹": 2302,
      "tÃł": 2303,
      "áº¸": 2304,
      "Com": 2305,
      "Ġevery": 2306,
      "Ġyoung": 2307,
      "Ġexpl": 2308,
      "Ġsw": 2309,
      "Ġchang": 2310,
      "ĠRoyal": 2311,
      "gbÃ©": 2312,
      "lected": 2313,
      "cial": 2314,
      ".ĠĊ": 2315,
      "rap": 2316,
      "ĠbÃ¡": 2317,
      "ĠNor": 2318,
      "nÃ¬yÃłn": 2319,
      "olic": 2320,
      "Ġstarted": 2321,
      "Ġrail": 2322,
      "Ġproduced": 2323,
      "Ġ1999": 2324,
      "ories": 2325,
      "ĠBer": 2326,
      "sy": 2327,
      "Ġclos": 2328,
      "ĠRed": 2329,
      "Ġwent": 2330,
      "ots": 2331,
      "ĠAcadem": 2332,
      "ĠJames": 2333,
      "val": 2334,
      "eal": 2335,
      "Ġinvol": 2336,
      "ĠAk": 2337,
      "hun": 2338,
      "irc": 2339,
      "ocr": 2340,
      "rÃ¹n": 2341,
      "erb": 2342,
      "ĠCanada": 2343,
      "Ġprote": 2344,
      "Ġgr": 2345,
      "Ġeffect": 2346,
      "Ġ[": 2347,
      "ma": 2348,
      "Ġtake": 2349,
      "Ġ2002": 2350,
      "Ġposs": 2351,
      "ĠGermany": 2352,
      "ĠJos": 2353,
      "ĠyÃ¬ÃŃ": 2354,
      "-S": 2355,
      "uz": 2356,
      "Ġpo": 2357,
      "ctor": 2358,
      "ett": 2359,
      "ule": 2360,
      "Ġir": 2361,
      "Ġgiven": 2362,
      "Ġcreated": 2363,
      "ĠRich": 2364,
      "Ġnext": 2365,
      "Ġprocess": 2366,
      "ĠRoad": 2367,
      "Ġtotal": 2368,
      "Ġsite": 2369,
      "ining": 2370,
      "era": 2371,
      "ĠÃ¨nÃ¬yÃłn": 2372,
      "rack": 2373,
      "ĠBen": 2374,
      "ĠChina": 2375,
      "kas": 2376,
      "align": 2377,
      "ĠStreet": 2378,
      "Ġspecial": 2379,
      "field": 2380,
      "ona": 2381,
      "oe": 2382,
      "ological": 2383,
      "Ġcommunity": 2384,
      "itect": 2385,
      "Ġmarried": 2386,
      "ĠPaul": 2387,
      "ĠBy": 2388,
      "itte": 2389,
      "ika": 2390,
      "ĠMount": 2391,
      "bor": 2392,
      "ston": 2393,
      "ĠPrin": 2394,
      "Ġclaim": 2395,
      "ipp": 2396,
      "ĠHen": 2397,
      "Ġstruct": 2398,
      "Ġak": 2399,
      "ala": 2400,
      "ĠMusic": 2401,
      "Ġvarious": 2402,
      "Ġ2001": 2403,
      "urb": 2404,
      "ĠUnion": 2405,
      "ĠolÃ³": 2406,
      "Ġet": 2407,
      "alt": 2408,
      "ĠVir": 2409,
      "Ġproduction": 2410,
      "ĠBas": 2411,
      "-c": 2412,
      "hel": 2413,
      "gy": 2414,
      "Ġbecome": 2415,
      "wood": 2416,
      "hib": 2417,
      "ming": 2418,
      "yáº¹": 2419,
      "ination": 2420,
      "reek": 2421,
      "inese": 2422,
      "Ġworked": 2423,
      "cip": 2424,
      "ĠIm": 2425,
      "Ġtw": 2426,
      "ketball": 2427,
      "Ġcommon": 2428,
      "Ġmuch": 2429,
      "Ġjoined": 2430,
      "Ġwhat": 2431,
      "ĠPe": 2432,
      "ĠDes": 2433,
      "ij": 2434,
      "ĠHol": 2435,
      "urk": 2436,
      "Ġá»įjá»įÌģ": 2437,
      "ĠIpin": 2438,
      "ead": 2439,
      "Ġdevelopment": 2440,
      "ĠAustralian": 2441,
      "âĢĻs": 2442,
      "arliam": 2443,
      "Ġoá¹£Ã¹": 2444,
      "Ġá»įdun": 2445,
      "Ġpract": 2446,
      "berg": 2447,
      "Ġsocial": 2448,
      "ilar": 2449,
      "Ġusing": 2450,
      "Ġsent": 2451,
      "estival": 2452,
      "Ġ100": 2453,
      "ividual": 2454,
      "Ġ29": 2455,
      "Ġmiss": 2456,
      "Ġmilitary": 2457,
      "Ġkáº¹": 2458,
      "Ġ=": 2459,
      "Ġhaving": 2460,
      "arliament": 2461,
      "ile-ede": 2462,
      "Pl": 2463,
      "ĊĠ": 2464,
      "site": 2465,
      "Ġprim": 2466,
      "Ġintro": 2467,
      "ators": 2468,
      "Ġ/": 2469,
      "Ġbeh": 2470,
      "Ġteams": 2471,
      "ogn": 2472,
      "stitut": 2473,
      "ink": 2474,
      "ances": 2475,
      "Ġhost": 2476,
      "ached": 2477,
      "Ġvol": 2478,
      "ecut": 2479,
      "hers": 2480,
      "Ġversion": 2481,
      "Ġig": 2482,
      "Ġtem": 2483,
      "ĠVal": 2484,
      "Ġmar": 2485,
      "-M": 2486,
      "Ġorile-ede": 2487,
      "Ġod": 2488,
      "Ġpopular": 2489,
      "ĠkÃ²": 2490,
      "Ġtele": 2491,
      "Film": 2492,
      "ĠMag": 2493,
      "Ġposition": 2494,
      "self": 2495,
      "ĠFl": 2496,
      "Ġsongs": 2497,
      "ĠKingdom": 2498,
      "ĠCourt": 2499,
      "Ġalbums": 2500,
      "ention": 2501,
      "ĠÃ¨dÃ¨": 2502,
      "kasÃŃ": 2503,
      "mar": 2504,
      "'t": 2505,
      "ĠStud": 2506,
      "Ġfew": 2507,
      "isl": 2508,
      "ows": 2509,
      "iction": 2510,
      "ĠFlor": 2511,
      "aken": 2512,
      "30": 2513,
      "Ġsee": 2514,
      "Ġpri": 2515,
      "ĠLaw": 2516,
      "color": 2517,
      "ederal": 2518,
      "tÃŃ": 2519,
      "Ġreturned": 2520,
      "acy": 2521,
      "ashington": 2522,
      "Ġchurch": 2523,
      "oul": 2524,
      "Ġwithout": 2525,
      "itz": 2526,
      "CA": 2527,
      "rab": 2528,
      "Ġtimes": 2529,
      "xt": 2530,
      "ying": 2531,
      "kÃ²": 2532,
      "Ġhig": 2533,
      "eh": 2534,
      "olution": 2535,
      "Ġright": 2536,
      "Ġvoc": 2537,
      "ĠOb": 2538,
      "ĠorÃŃláº¹ÌĢ-Ã¨dÃ¨": 2539,
      "craft": 2540,
      "ĠHall": 2541,
      "ĠInstitute": 2542,
      "ĠCong": 2543,
      "Ġwrote": 2544,
      "Ġalign=": 2545,
      "ĠMary": 2546,
      "Ġdirector": 2547,
      "Ġopened": 2548,
      "Ġperforman": 2549,
      "used": 2550,
      "Ġ\"S": 2551,
      "ĠDr": 2552,
      "ĠPri": 2553,
      "ccording": 2554,
      "ĠMad": 2555,
      "After": 2556,
      "ront": 2557,
      "Ġvideo": 2558,
      "Ġroad": 2559,
      "Ġile": 2560,
      "ĠtÃºn": 2561,
      "apt": 2562,
      "ources": 2563,
      "ĠFirst": 2564,
      "Ġter": 2565,
      "sequ": 2566,
      "ĠAcademy": 2567,
      "ĠDuring": 2568,
      "Pro": 2569,
      "arian": 2570,
      "-2": 2571,
      "ĠerÃ©": 2572,
      "Ġadminist": 2573,
      "Ġsu": 2574,
      "ĠLou": 2575,
      "Ġevents": 2576,
      "Ġins": 2577,
      "Ġgl": 2578,
      "Ġbroad": 2579,
      "Ġpip": 2580,
      "ius": 2581,
      "ĠMart": 2582,
      "Ġparticip": 2583,
      "-sc": 2584,
      "icle": 2585,
      "ĠSl": 2586,
      "ĠMex": 2587,
      "reak": 2588,
      "ĠCentral": 2589,
      "arter": 2590,
      "ĠPal": 2591,
      "duct": 2592,
      "Ġten": 2593,
      "sÃ¬": 2594,
      "Ġissu": 2595,
      "iles": 2596,
      "Ġráº¹": 2597,
      "ĠBlack": 2598,
      "Ġeconom": 2599,
      "ĠLeg": 2600,
      "ĠMy": 2601,
      "ĠĠĠĠĠĠĠĠ": 2602,
      "ĠPat": 2603,
      "ning": 2604,
      "ĠDel": 2605,
      "Ġhon": 2606,
      "Ġneed": 2607,
      "ota": 2608,
      "Ġexamp": 2609,
      "ades": 2610,
      "ĠGroup": 2611,
      "ĠÃ¬d": 2612,
      "ĠServ": 2613,
      "ending": 2614,
      "Ġfull": 2615,
      "ĠYear": 2616,
      "hold": 2617,
      "olit": 2618,
      "ĠIsland": 2619,
      "ĠJe": 2620,
      "rated": 2621,
      "Ġappointed": 2622,
      "ju": 2623,
      "mo": 2624,
      "Äģ": 2625,
      "aut": 2626,
      "aper": 2627,
      "ili": 2628,
      "ĠClub": 2629,
      "iddle": 2630,
      "ittee": 2631,
      "Ġlost": 2632,
      "Ġinvest": 2633,
      "ĠMinister": 2634,
      "ĠRepublic": 2635,
      "Ġcontinued": 2636,
      "icular": 2637,
      "Ġdon": 2638,
      "ĠList": 2639,
      "anies": 2640,
      "mon": 2641,
      "ger": 2642,
      "ĠNigeria": 2643,
      "Ġgreat": 2644,
      "Ġdu": 2645,
      "Ġpriv": 2646,
      "Ġ1996": 2647,
      "aughter": 2648,
      "arth": 2649,
      "aign": 2650,
      "Ġproper": 2651,
      "ĠTex": 2652,
      "Ġhowever": 2653,
      "Ġalumni": 2654,
      "Ġresearch": 2655,
      "ways": 2656,
      "Ġdays": 2657,
      "ĠFilm": 2658,
      "atter": 2659,
      "ano": 2660,
      "ráº¹": 2661,
      "ita": 2662,
      "ĠWashington": 2663,
      "Ġmatch": 2664,
      "-A": 2665,
      "Ġimp": 2666,
      "ĠCath": 2667,
      "Ġfounded": 2668,
      "ĠDon": 2669,
      "Ġgroups": 2670,
      "odes": 2671,
      "Ġlim": 2672,
      "eball": 2673,
      "Ġcomb": 2674,
      "ictor": 2675,
      "ym": 2676,
      "ĠArch": 2677,
      "Ġid": 2678,
      "ĠBest": 2679,
      "aker": 2680,
      "Ġregion": 2681,
      "Ġstory": 2682,
      "ĠTown": 2683,
      "ĠRecords": 2684,
      "ĠOp": 2685,
      "ĠCompany": 2686,
      "ray": 2687,
      "Ġident": 2688,
      "Ġmy": 2689,
      "ĠkÃ³": 2690,
      "Ġfriend": 2691,
      "Ġhalf": 2692,
      "ising": 2693,
      "ĠdÃ¡": 2694,
      "etwork": 2695,
      "ĠHill": 2696,
      "Ġ1998": 2697,
      "áº¹Ìģg": 2698,
      "Ġservices": 2699,
      "ĠChe": 2700,
      "ĠIpinle": 2701,
      "rian": 2702,
      "tá»įÌģkasÃŃ": 2703,
      "quad": 2704,
      "Ġwife": 2705,
      "ĠTV": 2706,
      "ĠCanadian": 2707,
      "ogbo": 2708,
      "Ġindividual": 2709,
      "-h": 2710,
      "Ġ1997": 2711,
      "burg": 2712,
      "ĠMa": 2713,
      "Ġmid": 2714,
      "ĠDepartment": 2715,
      "ged": 2716,
      "ibr": 2717,
      "go": 2718,
      "ĠGrand": 2719,
      "ĠSing": 2720,
      "ership": 2721,
      "Ġleague": 2722,
      "ĠProv": 2723,
      "Ġstudents": 2724,
      "Ġbrother": 2725,
      "ĠChinese": 2726,
      "âĢĵ0": 2727,
      "ges": 2728,
      "li": 2729,
      "já»įba": 2730,
      "á¹£e": 2731,
      "Ġcer": 2732,
      "Ġparty": 2733,
      "Ġpur": 2734,
      "Ġpáº¹ÌĢ": 2735,
      "Ġcaus": 2736,
      "Ġhuman": 2737,
      "Ġlow": 2738,
      "gcolor": 2739,
      "láº¹Ìģ": 2740,
      "ĠGames": 2741,
      "now": 2742,
      "ĠRail": 2743,
      "ĠSim": 2744,
      "Ġconsidered": 2745,
      "Ġcompleted": 2746,
      "Ġeducation": 2747,
      "hi": 2748,
      "ira": 2749,
      "Ġnovel": 2750,
      "rd": 2751,
      "Ġdeg": 2752,
      "ĠWhen": 2753,
      "Ġsimilar": 2754,
      "sych": 2755,
      "Ġindust": 2756,
      "en's": 2757,
      "aining": 2758,
      "nect": 2759,
      "Ġbeg": 2760,
      "ĠFranc": 2761,
      "ĠPress": 2762,
      "ĠĠ||": 2763,
      "20th-century": 2764,
      "ĠJew": 2765,
      "ells": 2766,
      "bert": 2767,
      "Ġmeet": 2768,
      "tÃ²": 2769,
      "oted": 2770,
      "ĠThese": 2771,
      "ĠSam": 2772,
      "Ġcontrol": 2773,
      "Ġattack": 2774,
      "Ġrelations": 2775,
      "Ġoffice": 2776,
      "-year": 2777,
      "Ġreal": 2778,
      "ĠWe": 2779,
      "Ġaver": 2780,
      "wÃ¡": 2781,
      "áº¹ÌĢr": 2782,
      "ĠChristian": 2783,
      "Ġpoints": 2784,
      "yÃ¨": 2785,
      "Ġfootballers": 2786,
      "25": 2787,
      "Ġpain": 2788,
      "ĠBu": 2789,
      "ká»įÌĢ": 2790,
      "oice": 2791,
      "Ġfind": 2792,
      "rig": 2793,
      "Ġelected": 2794,
      "Ġinflu": 2795,
      "áº¹Ìģgáº¹Ìģ": 2796,
      "-B": 2797,
      "Ġreview": 2798,
      "ĠAngel": 2799,
      "ependent": 2800,
      "lÃ³": 2801,
      "mb": 2802,
      "atural": 2803,
      "ĠNe": 2804,
      "ula": 2805,
      "overnor": 2806,
      "rish": 2807,
      "ĠMont": 2808,
      "aly": 2809,
      "unt": 2810,
      "ĠItalian": 2811,
      "Ġfurther": 2812,
      "back": 2813,
      "idence": 2814,
      "Ġareas": 2815,
      "ĠCommun": 2816,
      "ĠOlympics": 2817,
      "For": 2818,
      "gress": 2819,
      "Ġaut": 2820,
      "atory": 2821,
      "Ġpoint": 2822,
      "Ġgradu": 2823,
      "ensus": 2824,
      "Ġhold": 2825,
      "nel": 2826,
      "ugb": 2827,
      "Ġattem": 2828,
      "ification": 2829,
      "Ġview": 2830,
      "Ġphys": 2831,
      "Ġ1992": 2832,
      "ĠÃĮpÃŃnláº¹ÌĢ": 2833,
      "Ġdest": 2834,
      "ĠRobert": 2835,
      ".)": 2836,
      "less": 2837,
      "Ġdirected": 2838,
      "Ġsigned": 2839,
      "ĠCenter": 2840,
      "ĠNob": 2841,
      "ream": 2842,
      "ishing": 2843,
      "Ġsurv": 2844,
      "Ġguitar": 2845,
      "ĠRev": 2846,
      "eph": 2847,
      "Ġeast": 2848,
      "chnology": 2849,
      "ĠMus": 2850,
      "24": 2851,
      "Ġ1994": 2852,
      "ĠMuseum": 2853,
      "ĠBay": 2854,
      "ura": 2855,
      "int": 2856,
      "enc": 2857,
      "ĠWith": 2858,
      "itive": 2859,
      "rey": 2860,
      "Ġrecorded": 2861,
      "ĠVirgin": 2862,
      "Ġappeared": 2863,
      "Ġren": 2864,
      "Ġfail": 2865,
      "ospital": 2866,
      "yd": 2867,
      "ĠGreat": 2868,
      "icles": 2869,
      "Ġwebsite": 2870,
      "center\"": 2871,
      "Ġtog": 2872,
      "Ġcoll": 2873,
      "airs": 2874,
      "Ã¤": 2875,
      "ĠSummer": 2876,
      "Ġ1995": 2877,
      "Ġgrow": 2878,
      "Ġtrack": 2879,
      "ĠZeal": 2880,
      "Ġrace": 2881,
      "ĠScott": 2882,
      "Ġconc": 2883,
      "ĠTexas": 2884,
      "Ġbgcolor": 2885,
      "Ġmother": 2886,
      "zil": 2887,
      "Ġdeveloped": 2888,
      "ĠAwards": 2889,
      "ĠEmp": 2890,
      "bour": 2891,
      "ĠWestern": 2892,
      "rick": 2893,
      "reland": 2894,
      "Ġgood": 2895,
      "Ġrock": 2896,
      "ĠThomas": 2897,
      "-1": 2898,
      "Ġ185": 2899,
      "atre": 2900,
      "iron": 2901,
      "aye": 2902,
      "ĠKore": 2903,
      "ĠRussian": 2904,
      "ĠYou": 2905,
      "Ġcontract": 2906,
      "Ġimportant": 2907,
      "ĠCap": 2908,
      "Ġtogether": 2909,
      "ĠZealand": 2910,
      "ender": 2911,
      "ĠwÃ¡": 2912,
      "iff": 2913,
      "Ġbody": 2914,
      "Ġtradition": 2915,
      "Ġrul": 2916,
      "ĠJapanese": 2917,
      "II": 2918,
      "Ġepisode": 2919,
      "ga": 2920,
      "iting": 2921,
      "oo": 2922,
      "ĠGold": 2923,
      "ude": 2924,
      "aries": 2925,
      "ĠSal": 2926,
      "Ġhow": 2927,
      "Ġartist": 2928,
      "Ãłwá»įn": 2929,
      "Ġworking": 2930,
      "ĠTom": 2931,
      "Ġradio": 2932,
      "Ġpáº¹ÌĢlÃº": 2933,
      "á»įÌĢn": 2934,
      "Ġcoach": 2935,
      "ĠCro": 2936,
      "iria": 2937,
      "ĠDan": 2938,
      "Ġwest": 2939,
      "Ġhelp": 2940,
      "anding": 2941,
      "Ġformed": 2942,
      "Ġcase": 2943,
      "Ġparticular": 2944,
      "itt": 2945,
      "ĠAlex": 2946,
      "-3": 2947,
      "Ġfund": 2948,
      "Ġoffer": 2949,
      "Ġdecl": 2950,
      "isted": 2951,
      "Ġappl": 2952,
      "ither": 2953,
      "gen": 2954,
      "ĠWomen": 2955,
      "ĠCharles": 2956,
      "ĠGreen": 2957,
      "cks": 2958,
      "thlet": 2959,
      "Ġcond": 2960,
      "Ġreported": 2961,
      "Ġbirth": 2962,
      "De": 2963,
      "ÃŃkÃł": 2964,
      "Ġshould": 2965,
      "embly": 2966,
      "Ġground": 2967,
      "=\"center\"": 2968,
      "cle": 2969,
      "rim": 2970,
      "Ġdata": 2971,
      "ras": 2972,
      "here": 2973,
      "roll": 2974,
      "âĢĵ18": 2975,
      "Ġrights": 2976,
      "Ġ1993": 2977,
      "Ġáº¹gb": 2978,
      "aria": 2979,
      "azine": 2980,
      "Ġrank": 2981,
      "99": 2982,
      "Ġrelease": 2983,
      "Ġfre": 2984,
      "ĠFootball": 2985,
      "Ġ\"B": 2986,
      "Ġphot": 2987,
      "ĠÃĪ": 2988,
      "ĠCarol": 2989,
      "-C": 2990,
      "Ġ1991": 2991,
      "ĠDemocr": 2992,
      "40": 2993,
      "ria": 2994,
      "edy": 2995,
      "Ġweek": 2996,
      "ably": 2997,
      "Ġlanguage": 2998,
      "olk": 2999,
      "Ġtyp": 3000,
      "gbÃ¨": 3001,
      "asons": 3002,
      "ump": 3003,
      "ethod": 3004,
      "duced": 3005,
      "och": 3006,
      "ĠSpanish": 3007,
      "Ġdoc": 3008,
      "Ġmaking": 3009,
      "ĠCont": 3010,
      "atri": 3011,
      "emor": 3012,
      "atives": 3013,
      "idae": 3014,
      "Ġ:": 3015,
      "Ġmus": 3016,
      "wá»įÌģ": 3017,
      "imately": 3018,
      "Ġstar": 3019,
      "ĠNÃŃ": 3020,
      "Ġ50": 3021,
      "asc": 3022,
      "Ġmot": 3023,
      "iding": 3024,
      "utch": 3025,
      "tar": 3026,
      "lim": 3027,
      "Ġlive": 3028,
      "Ġ31": 3029,
      "Ġexample": 3030,
      "ĠUK": 3031,
      "Ġlaun": 3032,
      "ĠmÃ¡a": 3033,
      "Ġsports": 3034,
      "ducation": 3035,
      "pite": 3036,
      "Ġanim": 3037,
      "Ġschools": 3038,
      "ĠMac": 3039,
      "...": 3040,
      "ĠBill": 3041,
      "Ġothers": 3042,
      "Ġtourn": 3043,
      "abi": 3044,
      "oko": 3045,
      "New": 3046,
      "ĠMiss": 3047,
      "Ġemploy": 3048,
      "ĠSmith": 3049,
      "Ġless": 3050,
      "ensive": 3051,
      "-e": 3052,
      "ication": 3053,
      "Ġká»į": 3054,
      "ĠMet": 3055,
      "Ġz": 3056,
      "ella": 3057,
      "ĠPet": 3058,
      "ĠIb": 3059,
      "á»įÌģÃ¬bÃŃ": 3060,
      "icago": 3061,
      "ĠNaij": 3062,
      "Ġarchitect": 3063,
      "wh": 3064,
      "Eng": 3065,
      "oke": 3066,
      "ĠHenry": 3067,
      "ĠtÃł": 3068,
      "Ġnomin": 3069,
      "ĠBook": 3070,
      "Ġavail": 3071,
      "oz": 3072,
      "Ġma": 3073,
      "ulated": 3074,
      "Ġeight": 3075,
      "band": 3076,
      "udd": 3077,
      "Ġgáº¹Ìģgáº¹Ìģ": 3078,
      "alls": 3079,
      "Ġinit": 3080,
      "ĠMer": 3081,
      "Äĩ": 3082,
      "ranch": 3083,
      "Ġmedal": 3084,
      "ĠVol": 3085,
      "Ġcast": 3086,
      "Ġ1990": 3087,
      "ĠCommission": 3088,
      "rÃłn": 3089,
      "play": 3090,
      "Ġvict": 3091,
      "-st": 3092,
      "Ġqual": 3093,
      "ateg": 3094,
      "Ġstrong": 3095,
      "ĠFrom": 3096,
      "andid": 3097,
      "Ġcivil": 3098,
      "roy": 3099,
      "Ġdev": 3100,
      "ked": 3101,
      "ĠÐ": 3102,
      "Ġfight": 3103,
      "olf": 3104,
      "Ġcompanies": 3105,
      "ĠFrank": 3106,
      "ential": 3107,
      "oma": 3108,
      "Ġ()": 3109,
      "gu": 3110,
      "Ġinformation": 3111,
      "ĠParis": 3112,
      "This": 3113,
      "Ġhous": 3114,
      "Ġjud": 3115,
      "-score": 3116,
      "ĠCatholic": 3117,
      "itch": 3118,
      "igned": 3119,
      "ĠDi": 3120,
      "Ġ\"M": 3121,
      "Ġprot": 3122,
      "ĠVictor": 3123,
      "Ġcle": 3124,
      "Ġhimself": 3125,
      "Ġbelie": 3126,
      "Ġstage": 3127,
      "ceed": 3128,
      "Ġbasketball": 3129,
      "Ġrev": 3130,
      "Ġsay": 3131,
      "rama": 3132,
      "Ġcampaign": 3133,
      "yÃł": 3134,
      "Ġdaughter": 3135,
      "ĠOk": 3136,
      "Ġrecogn": 3137,
      "Ġá»įjá»įÌģÃ¬bÃŃ": 3138,
      "Ġfoc": 3139,
      "Ġdoes": 3140,
      "Ġacross": 3141,
      "Ġtest": 3142,
      "ĠTra": 3143,
      "ii": 3144,
      "ĠLat": 3145,
      "Ġbecom": 3146,
      "ites": 3147,
      "Ġfire": 3148,
      "ilities": 3149,
      "emi": 3150,
      "Ġjournal": 3151,
      "lam": 3152,
      "Ġohun": 3153,
      "21st": 3154,
      "Ġstations": 3155,
      "ĠKe": 3156,
      "ĠTer": 3157,
      "Ġlab": 3158,
      "Ge": 3159,
      "anted": 3160,
      "Ġiá¹£áº¹Ìģ": 3161,
      "Ġmunicip": 3162,
      "Ġput": 3163,
      "Ġbo": 3164,
      "Ġáº¸": 3165,
      "ockey": 3166,
      "Ġaverage": 3167,
      "retary": 3168,
      "Ġdivision": 3169,
      "Ġfree": 3170,
      "ĠLouis": 3171,
      "ĠNobel": 3172,
      "ado": 3173,
      "ements": 3174,
      "Ġcourt": 3175,
      "elu": 3176,
      "Ġpress": 3177,
      "ĠSant": 3178,
      "ĠTor": 3179,
      "Ġfemale": 3180,
      "Ġpolitician": 3181,
      "ĠNaijiria": 3182,
      "-in": 3183,
      "wÃ³": 3184,
      "áº¹ÌĢráº¹ÌĢ": 3185,
      "Ġkm": 3186,
      "shire": 3187,
      "ricket": 3188,
      "ĠilÃ©-": 3189,
      "Ġfollowed": 3190,
      "Ġmater": 3191,
      "most": 3192,
      "ificant": 3193,
      "Ġmodern": 3194,
      "board": 3195,
      "áº¹ÌģrÃŃkÃł": 3196,
      "viron": 3197,
      "inals": 3198,
      "Ġviol": 3199,
      "Ġtro": 3200,
      "Sc": 3201,
      "Ġacqu": 3202,
      "ĠTrans": 3203,
      "head": 3204,
      "Ġder": 3205,
      "Ġrelig": 3206,
      "Ġaway": 3207,
      "ĠRichard": 3208,
      "Ind": 3209,
      ")ĠĊ": 3210,
      "Ad": 3211,
      "ĊĊ|": 3212,
      "ĠMel": 3213,
      "aves": 3214,
      "Ġsepar": 3215,
      "ĠÃ²á¹£Ã¨": 3216,
      "ĠWhite": 3217,
      "Ġregular": 3218,
      "ĠlÃ³rÃŃ": 3219,
      "-se": 3220,
      "Early": 3221,
      "Ġcour": 3222,
      "Ġcost": 3223,
      "chie": 3224,
      "Ġgave": 3225,
      "ĠInter": 3226,
      "Ġ||ĠĠ||": 3227,
      "ĠCongress": 3228,
      "rel": 3229,
      "rest": 3230,
      "ĠAmáº¹ÌģrÃŃkÃł": 3231,
      "ĠEmpire": 3232,
      "Ġartists": 3233,
      "ĠItaly": 3234,
      "21st-century": 3235,
      "ishop": 3236,
      "iga": 3237,
      "AS": 3238,
      "lá»įÌģ": 3239,
      "Ġnaa": 3240,
      "uation": 3241,
      "ÃłÃ¡": 3242,
      "ylv": 3243,
      "ĠClass": 3244,
      "Ġthough": 3245,
      "Ġbar": 3246,
      "oys": 3247,
      "anda": 3248,
      "Ġmarket": 3249,
      "azz": 3250,
      "Ġsil": 3251,
      "idents": 3252,
      "Ġide": 3253,
      "Ġplaces": 3254,
      "Ġhealth": 3255,
      "oviet": 3256,
      "serv": 3257,
      "Ġcountries": 3258,
      "ĠTurk": 3259,
      "Ġgbogbo": 3260,
      "Ġaircraft": 3261,
      "elling": 3262,
      "Ġko": 3263,
      "Ġstri": 3264,
      "Ġavailable": 3265,
      "Ġmust": 3266,
      "Ġ1989": 3267,
      "Ġsuccessful": 3268,
      "TV": 3269,
      "ĠLos": 3270,
      "Ġgoal": 3271,
      "Te": 3272,
      "ĠSur": 3273,
      "ror": 3274,
      "istan": 3275,
      "Ġassist": 3276,
      "Ġalthough": 3277,
      "kÃ¬": 3278,
      "Ġlá»įÌģ": 3279,
      "ugu": 3280,
      "Ġproble": 3281,
      "Ġnever": 3282,
      "ĠGod": 3283,
      "aval": 3284,
      "ID": 3285,
      "Ġboard": 3286,
      "Ġassoci": 3287,
      "Ġplaying": 3288,
      "ĠPenn": 3289,
      "Ġmedia": 3290,
      "aya": 3291,
      "ĠMichael": 3292,
      "ĠOs": 3293,
      "hood": 3294,
      "Ġperformance": 3295,
      "gÃºn": 3296,
      "ĠPeter": 3297,
      "ua": 3298,
      "Ġlight": 3299,
      "utes": 3300,
      "ĠMass": 3301,
      "Ġran": 3302,
      "Ġ184": 3303,
      "ĠSwed": 3304,
      "Ġonce": 3305,
      "âĢĵ1": 3306,
      "onst": 3307,
      "ĠPublic": 3308,
      "ĠChicago": 3309,
      "ĠCons": 3310,
      "urity": 3311,
      "Ġlargest": 3312,
      "Ġcy": 3313,
      "ume": 3314,
      "Ġblack": 3315,
      "Ġtaken": 3316,
      "ĠWal": 3317,
      "ĠWil": 3318,
      "gbÃ¡": 3319,
      "ĠVirginia": 3320,
      "ĠScot": 3321,
      "adi": 3322,
      "Ġ1988": 3323,
      "ĠArts": 3324,
      "Ġconstruction": 3325,
      "Ġtour": 3326,
      "ĠKh": 3327,
      "190": 3328,
      "ĠFlorida": 3329,
      "Ġliving": 3330,
      "va": 3331,
      "Ġsex": 3332,
      "Ġsen": 3333,
      "26": 3334,
      "Ġforces": 3335,
      "yo": 3336,
      "awa": 3337,
      "ĠChampionships": 3338,
      "Ġperformed": 3339,
      "Ġactress": 3340,
      "Ġawarded": 3341,
      "icated": 3342,
      "Ġmonths": 3343,
      "dÃ¡": 3344,
      "imate": 3345,
      "rá»įÌĢ": 3346,
      "Ġwinn": 3347,
      "iter": 3348,
      "Ġcurrent": 3349,
      "Ġele": 3350,
      "ications": 3351,
      "igan": 3352,
      "ĠTo": 3353,
      "Ġplan": 3354,
      "ĠFestival": 3355,
      "Ġsinger": 3356,
      "Ġsignificant": 3357,
      "Ġfinished": 3358,
      "Ġoriginally": 3359,
      "uty": 3360,
      "Ġyou": 3361,
      "At": 3362,
      "iers": 3363,
      "Ġkilled": 3364,
      "ĠRD1": 3365,
      "Ġcirc": 3366,
      "Ġstated": 3367,
      "Ġminist": 3368,
      "FC": 3369,
      "jÃł": 3370,
      "Ġestablishments": 3371,
      "ĠalÃ¡": 3372,
      "ĠUp": 3373,
      "people": 3374,
      "Ġ1980": 3375,
      "fin": 3376,
      "Ġfa": 3377,
      "ĠWin": 3378,
      "Ġremained": 3379,
      "Ġbuildings": 3380,
      "ĠDay": 3381,
      "List": 3382,
      "28": 3383,
      "Ġill": 3384,
      "Ġtreat": 3385,
      "ĉĉ": 3386,
      "ĠOrder": 3387,
      "icy": 3388,
      "Ġtransfer": 3389,
      "road": 3390,
      "Ġkom": 3391,
      "Ġshows": 3392,
      "oba": 3393,
      "iro": 3394,
      "Ġbooks": 3395,
      "Ġseen": 3396,
      "aching": 3397,
      "Ġ45": 3398,
      "ora": 3399,
      "ĠMil": 3400,
      "Ġ40": 3401,
      "Sh": 3402,
      "Ġimpro": 3403,
      "duction": 3404,
      "FL": 3405,
      "Ġexecut": 3406,
      "ĠIreland": 3407,
      "Ġcross": 3408,
      "ĠtÃłbÃŃ": 3409,
      "FA": 3410,
      "Ġproduct": 3411,
      "lÃ¹": 3412,
      "ĠNavy": 3413,
      "writ": 3414,
      "Ġ2023": 3415,
      "Ġseven": 3416,
      "Ġmult": 3417,
      "Ã¬nrin": 3418,
      "kn": 3419,
      "ĠBank": 3420,
      "fficial": 3421,
      "ibrary": 3422,
      "ened": 3423,
      "Ġearn": 3424,
      "Ġaccess": 3425,
      "Se": 3426,
      "Ġsound": 3427,
      "ĠSun": 3428,
      "27": 3429,
      "Ġ1986": 3430,
      "Notes": 3431,
      "Ġincludes": 3432,
      "vironment": 3433,
      "ĠBrazil": 3434,
      "Ġthroughout": 3435,
      "inent": 3436,
      "Ġfar": 3437,
      "rael": 3438,
      "iri": 3439,
      "Ġstudy": 3440,
      "lant": 3441,
      "oms": 3442,
      "ĠHistory": 3443,
      "ĠolÃ¹": 3444,
      "Ġdesigned": 3445,
      "ĠSecond": 3446,
      "Ġtournament": 3447,
      "erous": 3448,
      "ĠonÃŃ": 3449,
      "ĠCarl": 3450,
      "Ġtax": 3451,
      "Ġsá»į": 3452,
      "za": 3453,
      "ĠÃ¨yÃŃ": 3454,
      "Ġmix": 3455,
      "Ġ1984": 3456,
      "porary": 3457,
      "iences": 3458,
      "Ġ1st": 3459,
      "oint": 3460,
      "ĠGra": 3461,
      "Ġcollection": 3462,
      "ĠJust": 3463,
      "ĠYor": 3464,
      "inc": 3465,
      "Le": 3466,
      "hest": 3467,
      "-g": 3468,
      "ny": 3469,
      "Ġdiv": 3470,
      "Ġge": 3471,
      "Ġsubject": 3472,
      "Ġleading": 3473,
      "Cl": 3474,
      "Ġcritic": 3475,
      "ugby": 3476,
      "Wh": 3477,
      "gba": 3478,
      "ĠRussia": 3479,
      "-G": 3480,
      "yp": 3481,
      "Ġcandid": 3482,
      "ĠGo": 3483,
      "Ġ1983": 3484,
      "60": 3485,
      "ette": 3486,
      "ids": 3487,
      "Ġpolice": 3488,
      "ĠPan": 3489,
      "Ġexist": 3490,
      "-P": 3491,
      "ĠCr": 3492,
      "ems": 3493,
      "aps": 3494,
      "Ġ||ĠĊ|": 3495,
      "Ġorin": 3496,
      "Ġfeatured": 3497,
      "ĠGovernment": 3498,
      "asing": 3499,
      "istics": 3500,
      "aches": 3501,
      "ĠCamp": 3502,
      "uter": 3503,
      "ĠPlay": 3504,
      "aur": 3505,
      "ĠgbÃ©": 3506,
      "ĠBrown": 3507,
      "ĠIll": 3508,
      "ĠGeorg": 3509,
      "Ġattempt": 3510,
      "Ġvia": 3511,
      "Ġprivate": 3512,
      "ills": 3513,
      "Ġrailway": 3514,
      "English": 3515,
      "west": 3516,
      "ĠRob": 3517,
      "ĠLake": 3518,
      "Ġstates": 3519,
      "ĠRock": 3520,
      "Ġkey": 3521,
      "vert": 3522,
      "oral": 3523,
      "Ġdam": 3524,
      "annel": 3525,
      "unk": 3526,
      "Ġdecision": 3527,
      "order": 3528,
      "Ġsugg": 3529,
      "Ġvocals": 3530,
      "ĠForce": 3531,
      "ca": 3532,
      "Ġ\"I": 3533,
      "mÃ¬": 3534,
      "ĠStar": 3535,
      "Ġrespect": 3536,
      "Ġable": 3537,
      "Ġfeatures": 3538,
      "ĠCommittee": 3539,
      "ĠDo": 3540,
      "Ġrespons": 3541,
      "Films": 3542,
      "Ġresults": 3543,
      "Ġdegree": 3544,
      "ĠmÃ©": 3545,
      "ĠLiber": 3546,
      "lÃł": 3547,
      "ĠIf": 3548,
      "uture": 3549,
      "Ġtraining": 3550,
      "ĠParliament": 3551,
      "ĠUk": 3552,
      "Ġcentral": 3553,
      "Ġtransl": 3554,
      "Ġcapt": 3555,
      "ĠSpain": 3556,
      "ĠSeries": 3557,
      "Ġ1987": 3558,
      "29": 3559,
      "aged": 3560,
      "BA": 3561,
      "IS": 3562,
      ").Ċ": 3563,
      "ux": 3564,
      "Ġcompetition": 3565,
      "ĠCast": 3566,
      "ving": 3567,
      "80": 3568,
      "Ġpast": 3569,
      "ability": 3570,
      "iano": 3571,
      "Ġfif": 3572,
      "Ġsubsequ": 3573,
      "Ġreplaced": 3574,
      "ores": 3575,
      "Ġnewsp": 3576,
      "Ġintroduced": 3577,
      "Ġdou": 3578,
      "Ġmaterial": 3579,
      "ĠAngeles": 3580,
      "láº¹": 3581,
      "yan": 3582,
      "ĠDirect": 3583,
      "ĠGr": 3584,
      "Ġeventually": 3585,
      "ĠSaint": 3586,
      "Ġtun": 3587,
      "ĠAssembly": 3588,
      "Ġmeas": 3589,
      "ĠService": 3590,
      "já»įÌģ": 3591,
      "Ġcollege": 3592,
      "Ġfig": 3593,
      "ĠSuper": 3594,
      "ĠOld": 3595,
      "ultural": 3596,
      "aka": 3597,
      "ĠKn": 3598,
      "Ġaud": 3599,
      "Ġentire": 3600,
      "Ġreb": 3601,
      "ĠBut": 3602,
      "eleb": 3603,
      "Ġleast": 3604,
      "Ġ1985": 3605,
      "win": 3606,
      "Ġscored": 3607,
      "Ġser": 3608,
      "ription": 3609,
      "position": 3610,
      "Ġmount": 3611,
      "aled": 3612,
      "Ġfourth": 3613,
      "ĠMexico": 3614,
      "Ð°": 3615,
      "Ġinj": 3616,
      "Ġbroadcast": 3617,
      "Ġearl": 3618,
      "Ġtype": 3619,
      "cher": 3620,
      "er's": 3621,
      "Ġwhite": 3622,
      "Ġwid": 3623,
      "Career": 3624,
      "Ġlisted": 3625,
      "Ġfav": 3626,
      ".Âł": 3627,
      "owers": 3628,
      "bÃ¹n": 3629,
      "mun": 3630,
      "arts": 3631,
      "lÃ¨": 3632,
      "ĠKar": 3633,
      "sec": 3634,
      "enth": 3635,
      "imb": 3636,
      "ribution": 3637,
      "Ġadded": 3638,
      "aught": 3639,
      "Ġplant": 3640,
      "ĠOff": 3641,
      "Ġexpress": 3642,
      "emic": 3643,
      "ulture": 3644,
      "esh": 3645,
      "Ġmass": 3646,
      "Ġloss": 3647,
      "ĠPre": 3648,
      "Ġmer": 3649,
      "Ġwriter": 3650,
      "Ġá»ĮÌĢ": 3651,
      "mercial": 3652,
      "Ġhom": 3653,
      "Ġprovided": 3654,
      "Ph": 3655,
      "ĠBur": 3656,
      "ĠnÃŃgbÃł": 3657,
      "Ġleader": 3658,
      "Ġcou": 3659,
      "Ġáº¹láº¹Ìģ": 3660,
      "Ã§": 3661,
      "NA": 3662,
      "ĠlÃ¨": 3663,
      "Ġaction": 3664,
      "itiz": 3665,
      "ĠJack": 3666,
      "Ġconv": 3667,
      "ĠyÃŃ": 3668,
      "Ġ1982": 3669,
      "Ġinterest": 3670,
      "Ġmodel": 3671,
      "atal": 3672,
      "Ġliter": 3673,
      "-19": 3674,
      "Ġconduct": 3675,
      "isi": 3676,
      "iana": 3677,
      "aba": 3678,
      "fl": 3679,
      "sel": 3680,
      "Ġenc": 3681,
      "Ġalign=\"center\"": 3682,
      "chan": 3683,
      "ĠLove": 3684,
      "Ġaccount": 3685,
      "ĠIts": 3686,
      "Ġupon": 3687,
      "Åį": 3688,
      "ource": 3689,
      "ĠScience": 3690,
      "ĠLand": 3691,
      "elt": 3692,
      "Ġ1976": 3693,
      "ique": 3694,
      "Ġpay": 3695,
      "Ġfront": 3696,
      "Ġeither": 3697,
      "ĠRadio": 3698,
      "esc": 3699,
      "Ġsaw": 3700,
      "Ġ183": 3701,
      "ĠSoviet": 3702,
      "atriate": 3703,
      "Ġstaff": 3704,
      "Ġwriters": 3705,
      "Ġclose": 3706,
      "da": 3707,
      "rative": 3708,
      "Ä±": 3709,
      "reme": 3710,
      "gent": 3711,
      "ww": 3712,
      "ĠGh": 3713,
      "Ġspace": 3714,
      "Ġgold": 3715,
      "ask": 3716,
      "-id": 3717,
      "with": 3718,
      "ware": 3719,
      "uke": 3720,
      "Ġpáº¹": 3721,
      "ĠAre": 3722,
      "ĠTour": 3723,
      "ĠDen": 3724,
      "Ġfarm": 3725,
      "ros": 3726,
      "ends": 3727,
      "Ġchange": 3728,
      "Ġabove": 3729,
      "left": 3730,
      "ĠSome": 3731,
      "ĠSk": 3732,
      "ĠWales": 3733,
      "ception": 3734,
      "Ġcurrently": 3735,
      "ĠAccording": 3736,
      "âĢĵ3": 3737,
      "omm": 3738,
      "Ġey": 3739,
      "-0": 3740,
      "ises": 3741,
      "Ġrange": 3742,
      "stitution": 3743,
      "Ġassociation": 3744,
      "ĠCarolina": 3745,
      "Ġ\"A": 3746,
      "ylvania": 3747,
      "Ġcop": 3748,
      "km": 3749,
      "Ġsch": 3750,
      "ĠFound": 3751,
      "wer": 3752,
      "Ġchair": 3753,
      "ĠTimes": 3754,
      "Ġpurch": 3755,
      "Ġnetwork": 3756,
      "Ġmissing": 3757,
      "Ġdocument": 3758,
      "Ġdraw": 3759,
      "ipl": 3760,
      "Ġhousehold": 3761,
      "ĠBoard": 3762,
      "Ġattended": 3763,
      "Ġapprox": 3764,
      "ĠMod": 3765,
      "Ġunits": 3766,
      "ĠPac": 3767,
      "ĠJun": 3768,
      "ĠÃ²á¹£Ã¨rÃ©": 3769,
      "Ġ#": 3770,
      "Ġinvolved": 3771,
      "ih": 3772,
      "rup": 3773,
      "rial": 3774,
      "king": 3775,
      "uff": 3776,
      "ero": 3777,
      "ato": 3778,
      "ĠMos": 3779,
      "Ġplaced": 3780,
      "owo": 3781,
      "dÃºn": 3782,
      "Con": 3783,
      "bur": 3784,
      "Ġreached": 3785,
      "istic": 3786,
      "Ġachie": 3787,
      "Ġcommand": 3788,
      "ĠOh": 3789,
      "rought": 3790,
      "Ġche": 3791,
      "Ġ1978": 3792,
      "mÃ¹": 3793,
      "Ġ\"the": 3794,
      "Ġbgcolor=": 3795,
      "ĠGar": 3796,
      "Ġstudies": 3797,
      "90": 3798,
      "ufact": 3799,
      "ply": 3800,
      "Ġpers": 3801,
      "Ġusually": 3802,
      "ĠWhile": 3803,
      "ees": 3804,
      "fic": 3805,
      "cel": 3806,
      "Ġlearn": 3807,
      "ension": 3808,
      "Ġ1981": 3809,
      "medi": 3810,
      "Ġ.ĊĊ": 3811,
      "ĠEr": 3812,
      "Ġinstead": 3813,
      "ĠHistoric": 3814,
      "Ġstudio": 3815,
      "gar": 3816,
      "ĠrÃŃ": 3817,
      "Ġste": 3818,
      "Ġcontribut": 3819,
      "Ġwind": 3820,
      "eated": 3821,
      "ĠjÃ¹": 3822,
      "Ġmethod": 3823,
      "-American": 3824,
      "ĠFin": 3825,
      "run": 3826,
      "Ġlook": 3827,
      "ein": 3828,
      "orpor": 3829,
      "erve": 3830,
      "Ġaccept": 3831,
      "known": 3832,
      "den": 3833,
      "kun": 3834,
      "Ġmovement": 3835,
      "ĠProvince": 3836,
      "Ġdiscover": 3837,
      "ĠDemocratic": 3838,
      "nder": 3839,
      "Ġmanufact": 3840,
      "bb": 3841,
      "ersey": 3842,
      "ĠPeople": 3843,
      "ĠHaw": 3844,
      "Ġgrand": 3845,
      "ĠLag": 3846,
      "isco": 3847,
      "ĠIrish": 3848,
      ")Ċ|": 3849,
      "ĠMr": 3850,
      "Ġwhose": 3851,
      "tÃłn": 3852,
      "Ġcur": 3853,
      "Ġlik": 3854,
      "ollowing": 3855,
      "eign": 3856,
      "ript": 3857,
      "Ġdig": 3858,
      "Ġtravel": 3859,
      "Ġbgcolor=#": 3860,
      "kins": 3861,
      "ĠSir": 3862,
      "ĠJoseph": 3863,
      "una": 3864,
      "ĠNorthern": 3865,
      "-language": 3866,
      "fect": 3867,
      "ela": 3868,
      "Ġoccup": 3869,
      "jáº¹": 3870,
      "wan": 3871,
      "Ġfir": 3872,
      "Ġ1979": 3873,
      "arily": 3874,
      "adium": 3875,
      "ĠMin": 3876,
      "Ġomo": 3877,
      "ĠSil": 3878,
      "Ġpot": 3879,
      "Ċ|Ċ|": 3880,
      "Ġgun": 3881,
      "ques": 3882,
      "ĠMark": 3883,
      "aki": 3884,
      "ĠHon": 3885,
      "Ġprovide": 3886,
      "ĠHistorical": 3887,
      "Ġpsych": 3888,
      "Ġmusical": 3889,
      "yr": 3890,
      "ali": 3891,
      "ennis": 3892,
      "Ġrelationship": 3893,
      "Ġalign=right": 3894,
      "John": 3895,
      "Ġneg": 3896,
      "Ġ1972": 3897,
      "Ġeffort": 3898,
      "kÃ¹n": 3899,
      "ĠBo": 3900,
      "ĠDou": 3901,
      "Ġanc": 3902,
      "Ġdecided": 3903,
      "oring": 3904,
      "ĠArab": 3905,
      "ĠRos": 3906,
      "Ġsection": 3907,
      "kÃ¨": 3908,
      "ĠÃģ": 3909,
      "Ġactor": 3910,
      "Person": 3911,
      "Ġcapital": 3912,
      "Ġhit": 3913,
      "Ġnight": 3914,
      "ĠAnn": 3915,
      "ĠIII": 3916,
      "E9": 3917,
      "Ġsum": 3918,
      "ila": 3919,
      "elled": 3920,
      "-score0": 3921,
      "sylvania": 3922,
      "ĠLife": 3923,
      "ength": 3924,
      "Ġforce": 3925,
      "Ġ1977": 3926,
      "-id=": 3927,
      "ĠIsrael": 3928,
      "Ġchampionship": 3929,
      "Ġcenter": 3930,
      "-18": 3931,
      "Ġpipul": 3932,
      "d6": 3933,
      "ĠSong": 3934,
      "Ġstop": 3935,
      "Ġpreviously": 3936,
      "Ġfunction": 3937,
      "Ġfall": 3938,
      "Ġrather": 3939,
      "amily": 3940,
      "inet": 3941,
      "Ġconnect": 3942,
      "min": 3943,
      "alled": 3944,
      "Ġactive": 3945,
      "ublican": 3946,
      "ulty": 3947,
      "Ġexhib": 3948,
      "Ġplays": 3949,
      "Ġparts": 3950,
      "Ġedition": 3951,
      "gl": 3952,
      "Ġben": 3953,
      "ima": 3954,
      "Ġregard": 3955,
      "Ġculture": 3956,
      "eds": 3957,
      "abit": 3958,
      "Ġobserv": 3959,
      "ĠÃĢwá»įn": 3960,
      "uba": 3961,
      "Ġ1975": 3962,
      "Ġconcern": 3963,
      "iá¹£áº¹Ìģ": 3964,
      "Ġmean": 3965,
      "ergy": 3966,
      "Ġcensus": 3967,
      "ĠEducation": 3968,
      "ĠNot": 3969,
      "Ġ1970": 3970,
      "ĠJer": 3971,
      "ĠmÃº": 3972,
      "-H": 3973,
      "Ġnatural": 3974,
      "aine": 3975,
      "akh": 3976,
      "Ġden": 3977,
      "á¹£Ãł": 3978,
      "Ġoutside": 3979,
      "ĠSocial": 3980,
      "ĠFred": 3981,
      "Ġbehind": 3982,
      "ometimes": 3983,
      "-D": 3984,
      "Ġorganiz": 3985,
      "Ġsouthern": 3986,
      "Ġanti": 3987,
      "ĠSub": 3988,
      "ĠOx": 3989,
      "icro": 3990,
      "ĠMo": 3991,
      "Ġseasons": 3992,
      "Ġinvestig": 3993,
      "inary": 3994,
      "Ġ\"L": 3995,
      "ĠChief": 3996,
      "Ġnorthern": 3997,
      "ĠFar": 3998,
      "mond": 3999,
      "Ġbur": 4000,
      "Ġcharacters": 4001,
      "face": 4002,
      "oto": 4003,
      "-up": 4004,
      "Ġnames": 4005,
      "ady": 4006,
      "heast": 4007,
      "Ġreve": 4008,
      "Ġlower": 4009,
      "ibi": 4010,
      "Ġball": 4011,
      "ĠCross": 4012,
      "ĠNi": 4013,
      "âĢĵ200": 4014,
      "orse": 4015,
      "ancial": 4016,
      "Ġunion": 4017,
      "Ġallowed": 4018,
      "-F": 4019,
      "ĠpÃ¨": 4020,
      "Ġlet": 4021,
      "uan": 4022,
      "Ġgenus": 4023,
      "ios": 4024,
      "Ġriver": 4025,
      "Ġmáº¹Ìģ": 4026,
      "bon": 4027,
      "Ġ1974": 4028,
      "Ġneigh": 4029,
      "ĠCO": 4030,
      "ĠBelg": 4031,
      "70": 4032,
      "ĠHa": 4033,
      "ĠDutch": 4034,
      "ĠSa": 4035,
      "Ġactors": 4036,
      "pecially": 4037,
      "ĠResearch": 4038,
      "ĠSpace": 4039,
      "Ġere": 4040,
      "Ġknow": 4041,
      "velopment": 4042,
      "ounter": 4043,
      "ĠSer": 4044,
      "Ġ\"D": 4045,
      "ĠAtlant": 4046,
      "s:": 4047,
      "ĠÂ": 4048,
      "olar": 4049,
      "ĠPennsylvania": 4050,
      "Ġaccording": 4051,
      "bÃł": 4052,
      "dÃ©": 4053,
      "Ġgirl": 4054,
      "ĠÃ¬wÃ©": 4055,
      "rÃ¬": 4056,
      "Ġcal": 4057,
      "clus": 4058,
      "Ġpersonal": 4059,
      "ĠScotland": 4060,
      "iláº¹": 4061,
      "vention": 4062,
      "aring": 4063,
      "illa": 4064,
      "ĊĠĊĊ": 4065,
      "ĠfÃŃ": 4066,
      "ĠFort": 4067,
      "allery": 4068,
      "Ġtoo": 4069,
      "Ġ1973": 4070,
      "tor": 4071,
      "Ġsus": 4072,
      "ĠStev": 4073,
      "There": 4074,
      "Ġprimary": 4075,
      "Ġik": 4076,
      "oso": 4077,
      "ĠAsia": 4078,
      "ĠCorps": 4079,
      "Ġesc": 4080,
      "Ġproperty": 4081,
      "Ġisland": 4082,
      "Ġplann": 4083,
      "Ġpark": 4084,
      "Ġbank": 4085,
      "Ġacadem": 4086,
      "Ġindependent": 4087,
      "Ġwomen's": 4088,
      "iki": 4089,
      "rees": 4090,
      "Ġmoney": 4091,
      "ĠSpec": 4092,
      "ĠMu": 4093,
      "Ġdeal": 4094,
      "Ġended": 4095,
      "Ġprison": 4096,
      "put": 4097,
      "Ġmagazine": 4098,
      "Ġplat": 4099,
      "Ġbox": 4100,
      "Ġwoman": 4101,
      "uments": 4102,
      "Ġowned": 4103,
      "Ġsystems": 4104,
      "Ġquarter": 4105,
      "Ġstyle=\"": 4106,
      "Ġwinning": 4107,
      "ĠTeam": 4108,
      "ĠĠĊ": 4109,
      "Ġking": 4110,
      "Ġsingles": 4111,
      "ĠJohnson": 4112,
      "Ġpáº¹lu": 4113,
      "During": 4114,
      "ĠNa": 4115,
      "ĠEv": 4116,
      "Ġproducer": 4117,
      "Ġcred": 4118,
      "irit": 4119,
      "2010": 4120,
      "Ġscient": 4121,
      "Ġsettle": 4122,
      "Ġdefeat": 4123,
      "Ġindustry": 4124,
      "onse": 4125,
      "Ġbeginning": 4126,
      "45": 4127,
      "Ġaf": 4128,
      "Ġ1967": 4129,
      "Ġrepresented": 4130,
      "Ġdrama": 4131,
      "emporary": 4132,
      "rÃ¡": 4133,
      "Ġcricket": 4134,
      "iled": 4135,
      "Ġterrit": 4136,
      "iography": 4137,
      "ĠTwo": 4138,
      "ĠFC": 4139,
      "ping": 4140,
      "pan": 4141,
      "Ġbrought": 4142,
      "ĠPrem": 4143,
      "Ġhigher": 4144,
      "obal": 4145,
      "sk": 4146,
      "ogun": 4147,
      "Ġ1960": 4148,
      "Ġ1968": 4149,
      "ĠBritain": 4150,
      "ĠMill": 4151,
      "pts": 4152,
      "Ð¾": 4153,
      "ĠÅ": 4154,
      "Ġnip": 4155,
      "ami": 4156,
      "Ġself": 4157,
      "Ġchanged": 4158,
      "mad": 4159,
      "Ġcoast": 4160,
      "Ġprincip": 4161,
      "oir": 4162,
      "Ġremov": 4163,
      "ĠRh": 4164,
      "Ġalmost": 4165,
      "Ġdefeated": 4166,
      "Ġfamilies": 4167,
      "AR": 4168,
      "Ġbig": 4169,
      "inois": 4170,
      "ĠBul": 4171,
      "ĠJud": 4172,
      "Ġclosed": 4173,
      "ĠDis": 4174,
      "Ã¹bÃ¡": 4175,
      "-L": 4176,
      "Ġreading": 4177,
      "ĠAz": 4178,
      "mark": 4179,
      "ĠPop": 4180,
      "ĠColumb": 4181,
      "Ġsize": 4182,
      "ĠIS": 4183,
      "ĠÃ¬já»įba": 4184,
      "Ġilu": 4185,
      "Ðµ": 4186,
      "ands": 4187,
      "Ġcommission": 4188,
      "Ġpred": 4189,
      "ĠCamb": 4190,
      "ĠCivil": 4191,
      "Ġpossible": 4192,
      "Ġ\"T": 4193,
      "iyan": 4194,
      "Ġ2nd": 4195,
      "ĠÃłká»įÌģ": 4196,
      "ĠDef": 4197,
      "Ġsat": 4198,
      "Ġpractice": 4199,
      "ingu": 4200,
      "ador": 4201,
      "Ġ1969": 4202,
      "rÃ³": 4203,
      "oston": 4204,
      "ĠJewish": 4205,
      "Ġ1966": 4206,
      "ĠAlb": 4207,
      "ĠMah": 4208,
      "ĠBal": 4209,
      "ĠO'": 4210,
      "ĠBattle": 4211,
      "ĠUr": 4212,
      "Ġissues": 4213,
      "Ġáº¹gbáº¹Ìģ": 4214,
      "ĠOpen": 4215,
      "change": 4216,
      "ĠnÃŃpa": 4217,
      "Ġmá»įÌģ": 4218,
      "ĠGreek": 4219,
      "kÃłn": 4220,
      "ĠSouthern": 4221,
      "Ġ\"C": 4222,
      "mÃŃ": 4223,
      "amous": 4224,
      "ĠId": 4225,
      "NÃŃ": 4226,
      "ĠHam": 4227,
      "ĠOther": 4228,
      "Ġcare": 4229,
      "áº¹ÌģyÃ¬n": 4230,
      "ĠVi": 4231,
      "ĠPoland": 4232,
      "rate": 4233,
      "well": 4234,
      "n't": 4235,
      "Ġsom": 4236,
      "ĠCle": 4237,
      "pá»į": 4238,
      "Ç¹": 4239,
      "Ġmur": 4240,
      "ibility": 4241,
      "ĠPrince": 4242,
      "Ġscience": 4243,
      "Ġdeterm": 4244,
      "Ġbon": 4245,
      "Ġdate": 4246,
      "75": 4247,
      "2019": 4248,
      "Ġ1971": 4249,
      "Ġorganization": 4250,
      "Ġda": 4251,
      "ĠIslam": 4252,
      "ĠJo": 4253,
      "Ġwriting": 4254,
      "tained": 4255,
      "Ġsummer": 4256,
      "anna": 4257,
      "ĠwÃŃ": 4258,
      "Ġ1965": 4259,
      "Ġpoet": 4260,
      "Ġceleb": 4261,
      "Ġtext": 4262,
      "ecess": 4263,
      "ĠMichigan": 4264,
      "ĠRailway": 4265,
      "Ġfood": 4266,
      "ĠWood": 4267,
      "ansas": 4268,
      "Ġapproximately": 4269,
      "-n": 4270,
      "omy": 4271,
      "ums": 4272,
      "ift": 4273,
      "Ð¸": 4274,
      "ĠOper": 4275,
      "oid": 4276,
      "uses": 4277,
      "ĠSar": 4278,
      "bury": 4279,
      "Ġhard": 4280,
      "ify": 4281,
      "Ġstructure": 4282,
      "Ġquest": 4283,
      "2015": 4284,
      "Ġprof": 4285,
      "teg": 4286,
      "Ġtowards": 4287,
      "Ġretired": 4288,
      "Ġbass": 4289,
      "Ġrequired": 4290,
      "á¹£u": 4291,
      "Ġdom": 4292,
      "inated": 4293,
      "Ġenter": 4294,
      "Ġant": 4295,
      "//": 4296,
      "inem": 4297,
      "She": 4298,
      "Ġlegal": 4299,
      "Ġadditional": 4300,
      "Ãºká»į": 4301,
      "Ġsyn": 4302,
      "urt": 4303,
      "Ġtraditional": 4304,
      "pÃ©": 4305,
      "umn": 4306,
      "ĠStep": 4307,
      "ĠWilliams": 4308,
      "iÄĩ": 4309,
      "Ġcomplet": 4310,
      "lying": 4311,
      "Ġáº¹ÌĢká»įÌģ": 4312,
      "ĠScottish": 4313,
      "Ġnar": 4314,
      "Ġphil": 4315,
      "-time": 4316,
      "emorial": 4317,
      "-T": 4318,
      "ĠJim": 4319,
      "Ġoccur": 4320,
      "ĠYoung": 4321,
      "ĠLine": 4322,
      "ĠMartin": 4323,
      "acing": 4324,
      "ĠEngine": 4325,
      "ĠjÃ¡": 4326,
      "-based": 4327,
      "''": 4328,
      "ols": 4329,
      "acher": 4330,
      "gbá»įÌģn": 4331,
      "eck": 4332,
      "Ġfootballer": 4333,
      "Ġlittle": 4334,
      "Sp": 4335,
      "ules": 4336,
      "ĠOd": 4337,
      "ĠOut": 4338,
      "Ġcommercial": 4339,
      "Ġlaunched": 4340,
      "Ġbreak": 4341,
      "venue": 4342,
      "chen": 4343,
      "rown": 4344,
      "ĠHot": 4345,
      "ĠHealth": 4346,
      "Ġsoon": 4347,
      "Ġprotect": 4348,
      "Ġever": 4349,
      "Ġchief": 4350,
      "Ġnoted": 4351,
      "2013": 4352,
      "Res": 4353,
      "ĠFer": 4354,
      "Ġimm": 4355,
      "stra": 4356,
      "war": 4357,
      "ences": 4358,
      "Ġ1945": 4359,
      "AC": 4360,
      "inrin": 4361,
      "Ġoperations": 4362,
      "ĠDirector": 4363,
      "2016": 4364,
      "Ġvir": 4365,
      "Ġunit": 4366,
      "Ġ1964": 4367,
      "Ġáº¹láº¹ÌģbÃ¹n": 4368,
      "Ġpen": 4369,
      "Ġsquad": 4370,
      "ĠTheatre": 4371,
      "ĠkÃº": 4372,
      "Ġgoals": 4373,
      "Ġfuture": 4374,
      "Ġstandard": 4375,
      "quare": 4376,
      "si": 4377,
      "Ġfrequ": 4378,
      "ĠayÃ©": 4379,
      "Ġlegisl": 4380,
      "uffer": 4381,
      "dÃº": 4382,
      "Ġofficer": 4383,
      "abeth": 4384,
      "Ġadop": 4385,
      "2012": 4386,
      "2017": 4387,
      "ĠRegister": 4388,
      "All": 4389,
      "Ġspent": 4390,
      "arriage": 4391,
      "Ġtaking": 4392,
      "Ġespecially": 4393,
      "Ġlived": 4394,
      "ĠPrim": 4395,
      "oro": 4396,
      "Ġcut": 4397,
      "ĠIllinois": 4398,
      "2005": 4399,
      "Ġruns": 4400,
      "National": 4401,
      "Ġ\"W": 4402,
      "Ġsett": 4403,
      "sue": 4404,
      "wá»į": 4405,
      "ĠTri": 4406,
      "Ġbattle": 4407,
      "Ġcertain": 4408,
      "itors": 4409,
      "ampions": 4410,
      "2014": 4411,
      "aily": 4412,
      "overs": 4413,
      "ĠProfess": 4414,
      "Ġadj": 4415,
      "Ġissue": 4416,
      "Ġtrade": 4417,
      "ao": 4418,
      "itation": 4419,
      "ĠCam": 4420,
      "ĠLuc": 4421,
      "ĠHow": 4422,
      "áº¹Ìģáº¹ÌĢ": 4423,
      "gbÃ²": 4424,
      "ĠOhio": 4425,
      "rÃ¡n": 4426,
      "Ġchanges": 4427,
      "anks": 4428,
      "enced": 4429,
      "Ġpoliticians": 4430,
      "Other": 4431,
      "Ġanal": 4432,
      "ĠSecretary": 4433,
      "state": 4434,
      "2011": 4435,
      "ĠMost": 4436,
      "Ġshot": 4437,
      "Ġfeature": 4438,
      "cing": 4439,
      "Ġwood": 4440,
      "ĠPost": 4441,
      "ĠCentre": 4442,
      "ĠCD": 4443,
      "Ġstudent": 4444,
      "Ġdepartment": 4445,
      "adel": 4446,
      "usband": 4447,
      ";\"": 4448,
      "Ġminor": 4449,
      "ĠValley": 4450,
      "Ġdestroy": 4451,
      "ĠGovernor": 4452,
      "-I": 4453,
      "nam": 4454,
      "vin": 4455,
      "Ġcell": 4456,
      "ĠPak": 4457,
      "ĠTro": 4458,
      "Ġelections": 4459,
      "ĠFrancisco": 4460,
      "Ġto:": 4461,
      "ĠDie": 4462,
      "ĠArmen": 4463,
      "2006": 4464,
      "2009": 4465,
      "US": 4466,
      "rich": 4467,
      "Ġcome": 4468,
      "Ġprofessor": 4469,
      "rÃ¨": 4470,
      "vis": 4471,
      "ĠNews": 4472,
      "ĠIran": 4473,
      "Ġ1920": 4474,
      "uge": 4475,
      "ĠJersey": 4476,
      "Ġsenior": 4477,
      "etts": 4478,
      "wÃł": 4479,
      "Ġwit": 4480,
      "ĠIslands": 4481,
      "Ġobject": 4482,
      "lav": 4483,
      "Ġfle": 4484,
      "Ġcitiz": 4485,
      "ĠBig": 4486,
      "Ġuses": 4487,
      "anced": 4488,
      "Ġprop": 4489,
      "Ġscore": 4490,
      "Ġmeans": 4491,
      "press": 4492,
      "Ġrelated": 4493,
      "Ġpromot": 4494,
      "sÃłn": 4495,
      "tÃ³": 4496,
      "Ġens": 4497,
      "Ġpap": 4498,
      "pÃ¡": 4499,
      "Ã±": 4500,
      "ider": 4501,
      "Ġhighest": 4502,
      "ĠIlÃ©": 4503,
      "Ġgive": 4504,
      "ĠMov": 4505,
      "Ġwhom": 4506,
      "Ġentered": 4507,
      "ĠMat": 4508,
      "Ġroute": 4509,
      "Ġitself": 4510,
      "Ġmonth": 4511,
      "Ġappearance": 4512,
      "Ġcaused": 4513,
      "ĠPacific": 4514,
      "Ġ\"P": 4515,
      "ĠAlthough": 4516,
      "ackson": 4517,
      "Ã£": 4518,
      "ĠHel": 4519,
      "2007": 4520,
      "Ġsuper": 4521,
      "ready": 4522,
      "ache": 4523,
      "rying": 4524,
      "Ġassociated": 4525,
      "ĠBh": 4526,
      "2018": 4527,
      "2008": 4528,
      "oper": 4529,
      "inct": 4530,
      "Ġcases": 4531,
      "-R": 4532,
      "ĠHead": 4533,
      "Ġbaseball": 4534,
      "Ġmatches": 4535,
      "Ġemer": 4536,
      "Ġcontains": 4537,
      "Ġcentre": 4538,
      "Ġcounty": 4539,
      "ĠEdward": 4540,
      "Ġthreat": 4541,
      "ĠVer": 4542,
      "Ġmove": 4543,
      "dÃŃ": 4544,
      "Ġmo": 4545,
      "ĠBab": 4546,
      "ĠEb": 4547,
      "enant": 4548,
      "ĠConference": 4549,
      "ĠYorÃ¹bÃ¡": 4550,
      "Ġsometimes": 4551,
      "ĠÃ¨tÃ²": 4552,
      "Ġmeeting": 4553,
      "burgh": 4554,
      "ĠbÃŃi": 4555,
      "down": 4556,
      "Ġmanager": 4557,
      "Ġodun": 4558,
      "ken": 4559,
      "add": 4560,
      "Ġgra": 4561,
      "Ġarran": 4562,
      "Ġnews": 4563,
      "Ġmission": 4564,
      "Ġsurround": 4565,
      "nÃŃ": 4566,
      "org": 4567,
      "ĠBell": 4568,
      "ĠLab": 4569,
      "Ġ\"H": 4570,
      "ils": 4571,
      "AF": 4572,
      "Ġpaint": 4573,
      "ĠJac": 4574,
      "2020": 4575,
      "Ġactivities": 4576,
      "standing": 4577,
      "tainment": 4578,
      "idi": 4579,
      "Ġgenerally": 4580,
      "Ġlimited": 4581,
      "Ġreligious": 4582,
      "sÃ¹": 4583,
      "ĠLee": 4584,
      "ĠTw": 4585,
      "arters": 4586,
      "Ġseat": 4587,
      "Ġselected": 4588,
      "Ġuniversity": 4589,
      "pected": 4590,
      "Ġmanagement": 4591,
      "Ġlength": 4592,
      "Ġcomplex": 4593,
      "ĠFederal": 4594,
      "Ġstatus": 4595,
      "ĠSystem": 4596,
      "plement": 4597,
      "://": 4598,
      "etic": 4599,
      "ĠEs": 4600,
      "ĠElect": 4601,
      "ĠFM": 4602,
      "Ġtransport": 4603,
      "Å¡": 4604,
      "Ġ\"F": 4605,
      "hire": 4606,
      "anded": 4607,
      "Ġeditor": 4608,
      "Ġfederal": 4609,
      "ĠWomen's": 4610,
      "arden": 4611,
      "oni": 4612,
      "ĠLit": 4613,
      "ĠGal": 4614,
      "Ġ180": 4615,
      "Ġscreen": 4616,
      "Ġeconomic": 4617,
      "95": 4618,
      "ried": 4619,
      "ĠAff": 4620,
      "ĠJr": 4621,
      "-4": 4622,
      "ĠEll": 4623,
      "Ġsoft": 4624,
      "ĠFoundation": 4625,
      "ĠSand": 4626,
      "ĠBoston": 4627,
      "ĠNations": 4628,
      "Ã´": 4629,
      "ĠGirl": 4630,
      "ĠEnter": 4631,
      "achus": 4632,
      "ĠInc": 4633,
      "Ã³Ã²": 4634,
      "Ġoperated": 4635,
      "Ġdiffic": 4636,
      "Ġaká»į": 4637,
      "raine": 4638,
      "Ġpie": 4639,
      "Ġbase": 4640,
      "âĢĵ4": 4641,
      "ĠCharl": 4642,
      "Ġindic": 4643,
      "Ġincreased": 4644,
      "Ġinside": 4645,
      "asy": 4646,
      "Ġ1962": 4647,
      "Year": 4648,
      "Ġelev": 4649,
      "Ġcourse": 4650,
      "Ġopening": 4651,
      "ĠOxford": 4652,
      "ĠSpr": 4653,
      "Ġprior": 4654,
      "occer": 4655,
      "Ġrunning": 4656,
      "United": 4657,
      "ĠBang": 4658,
      "ĠKen": 4659,
      "iple": 4660,
      "ysis": 4661,
      "Ġbecoming": 4662,
      "Ġ1963": 4663,
      "ĠCE": 4664,
      "Ġthus": 4665,
      "Ġinstr": 4666,
      "Ġresponse": 4667,
      "ĠPhilipp": 4668,
      "mission": 4669,
      "AT": 4670,
      "aters": 4671,
      "ritish": 4672,
      "Ġigb": 4673,
      "Ġinstitut": 4674,
      "ĠBa": 4675,
      "ĠViet": 4676,
      "phy": 4677,
      "Ġ1942": 4678,
      "ds": 4679,
      "Ġbound": 4680,
      "Ġconstruct": 4681,
      "zech": 4682,
      "Ġstudied": 4683,
      "Ġmajority": 4684,
      "ĠSo": 4685,
      "Ġinterview": 4686,
      "Ġprograms": 4687,
      "ÅĤ": 4688,
      "Ġoverall": 4689,
      "mitted": 4690,
      "Ġsuffer": 4691,
      "Ġaltern": 4692,
      "ĠIra": 4693,
      "ĠRepublican": 4694,
      "tra": 4695,
      "Ġlocation": 4696,
      "Ġemb": 4697,
      "uit": 4698,
      "ĠFed": 4699,
      "chester": 4700,
      "Ġlack": 4701,
      "Ã¡ra": 4702,
      "ucle": 4703,
      "ĠThat": 4704,
      "Ġpassed": 4705,
      ")Ġ||": 4706,
      "Ġmach": 4707,
      "Ġ60": 4708,
      "stitu": 4709,
      "Ġearlier": 4710,
      "ez": 4711,
      "Pop": 4712,
      "ĠRam": 4713,
      "ĠCorn": 4714,
      "Ġshown": 4715,
      "Ã¸": 4716,
      "ĠArgent": 4717,
      "85": 4718,
      "ĠKong": 4719,
      "achusetts": 4720,
      ",Ġ(": 4721,
      "mir": 4722,
      "Ġtechn": 4723,
      "Or": 4724,
      "Ġvote": 4725,
      "Ġmedical": 4726,
      "ĠLord": 4727,
      "Ġenvironment": 4728,
      "Ġnon-": 4729,
      "ental": 4730,
      "ĠlÃ¡ra": 4731,
      "Ġwel": 4732,
      "Ġwide": 4733,
      "Ġwestern": 4734,
      "Ãłráº¹": 4735,
      "ĠLin": 4736,
      "ĠJournal": 4737,
      "ĠâĢł": 4738,
      "rison": 4739,
      "ĠLim": 4740,
      "ĠOrgan": 4741,
      "Ġships": 4742,
      "Med": 4743,
      "Ġveh": 4744,
      "Ġconsist": 4745,
      "ĠSat": 4746,
      "Ġrap": 4747,
      "ĠAsian": 4748,
      ")ĊĠ": 4749,
      "stone": 4750,
      "Ġalready": 4751,
      "ĠMcC": 4752,
      "65": 4753,
      "Ġdescent": 4754,
      "ĠMinistry": 4755,
      "Ġinitially": 4756,
      "kÃº": 4757,
      "ĠpÃł": 4758,
      "Ġhockey": 4759,
      "Ġlove": 4760,
      "urban": 4761,
      "ĠUnder": 4762,
      "Ġord": 4763,
      "text": 4764,
      "reater": 4765,
      "ĠlÃ©": 4766,
      "Ġ1961": 4767,
      "Can": 4768,
      "tic": 4769,
      "Ġhusband": 4770,
      "rief": 4771,
      "âĢĵ19": 4772,
      "Ġcreat": 4773,
      "Ġnumerous": 4774,
      "ĠSea": 4775,
      "Ġarmy": 4776,
      "Ġstructures": 4777,
      "Ġcollabor": 4778,
      "ĠJones": 4779,
      "oj": 4780,
      "ĠStan": 4781,
      "ĠPrize": 4782,
      "rá»į": 4783,
      "ĠTime": 4784,
      "ĠTim": 4785,
      "ĠLi": 4786,
      "Ġpolicy": 4787,
      "Ġcommunities": 4788,
      "ieut": 4789,
      "Ġannual": 4790,
      "Ġnominated": 4791,
      "-Ã¬": 4792,
      "wá»įÌĢ": 4793,
      "Ġaá¹£": 4794,
      "ĠAsh": 4795,
      "verse": 4796,
      "isk": 4797,
      "Ġlic": 4798,
      "igr": 4799,
      "Ġcomedy": 4800,
      "Ġabs": 4801,
      "ĠAndrew": 4802,
      "Ġterms": 4803,
      "ĠOffice": 4804,
      "ĠMajor": 4805,
      "igen": 4806,
      "Ġtrain": 4807,
      "onic": 4808,
      "Ġsched": 4809,
      "Ġvictory": 4810,
      "pon": 4811,
      "ĠHospital": 4812,
      "Ġbelow": 4813,
      "ĠLatin": 4814,
      "-W": 4815,
      "Col": 4816,
      "Ġofficers": 4817,
      "Ġequip": 4818,
      "ĠBroad": 4819,
      "Ġplatform": 4820,
      "Ġforeign": 4821,
      "Ġdise": 4822,
      "Ġcouncil": 4823,
      "Ġsea": 4824,
      "ĠRepresent": 4825,
      "Ġthought": 4826,
      "âĢĵ2": 4827,
      "ĠLagos": 4828,
      "Ġsaf": 4829,
      "ĠSund": 4830,
      "Ġcolon": 4831,
      "Ġkeep": 4832,
      "ĠNight": 4833,
      "ĠÃ¬tá»įÌģkasÃŃ": 4834,
      "ĠPolish": 4835,
      "Ġdiscuss": 4836,
      "Ġrequire": 4837,
      "onto": 4838,
      "arÃŃ": 4839,
      "Ġ1944": 4840,
      "s\"": 4841,
      "ĠBet": 4842,
      "ĠÃĪkÃ³": 4843,
      "Ġinn": 4844,
      "ĠChild": 4845,
      "Ġcomplete": 4846,
      "Members": 4847,
      "ĠAh": 4848,
      "ĠAare": 4849,
      "Ġnine": 4850,
      "ĠBob": 4851,
      "ĠKent": 4852,
      "ĠSenate": 4853,
      "ube": 4854,
      "ervation": 4855,
      "University": 4856,
      "Ċ!": 4857,
      "ĠGood": 4858,
      "osa": 4859,
      "Ġtrib": 4860,
      "isation": 4861,
      "Ġconcer": 4862,
      "Ġbetter": 4863,
      "onia": 4864,
      "ova": 4865,
      "izabeth": 4866,
      "enty": 4867,
      "Ġtheory": 4868,
      "Ġfit": 4869,
      "ĠJackson": 4870,
      "Ġ3:": 4871,
      "Ġgener": 4872,
      "ĠCorpor": 4873,
      "Dem": 4874,
      "uild": 4875,
      "iance": 4876,
      "ĠÃĮtá»įÌģkasÃŃ": 4877,
      "ĠÃ¬dÃŃ": 4878,
      "Ġnewspaper": 4879,
      "Ġhum": 4880,
      "Ġrate": 4881,
      "eeks": 4882,
      "Ġearned": 4883,
      "Ġlori": 4884,
      "agement": 4885,
      "izing": 4886,
      "ĠPlaces": 4887,
      "Sports": 4888,
      "wu": 4889,
      "Ġproposed": 4890,
      "78": 4891,
      "Aust": 4892,
      "Ġparents": 4893,
      "rast": 4894,
      "ĠSol": 4895,
      "ogue": 4896,
      "joba": 4897,
      "ĠBor": 4898,
      "Ġeth": 4899,
      "ĠPres": 4900,
      "ĠInf": 4901,
      "Ġpersonnel": 4902,
      "reedom": 4903,
      "35": 4904,
      "Ġelectric": 4905,
      "ĠKorea": 4906,
      "ĠMassachusetts": 4907,
      "po": 4908,
      "cean": 4909,
      "ifying": 4910,
      "Ġ\"G": 4911,
      "ĠUnivers": 4912,
      "nes": 4913,
      "yer": 4914,
      "ĠBad": 4915,
      "ĠAri": 4916,
      "Ġlines": 4917,
      "Ġevidence": 4918,
      "British": 4919,
      "ĠBBC": 4920,
      "ĠOf": 4921,
      "Ġoccas": 4922,
      "ĠMot": 4923,
      "ĠBern": 4924,
      "ĠmÃ©jÃ¬": 4925,
      "Ã£o": 4926,
      "house": 4927,
      "ograp": 4928,
      "2004": 4929,
      "Ġrecording": 4930,
      "encies": 4931,
      "CO": 4932,
      "vey": 4933,
      "Ġice": 4934,
      "ĠStation": 4935,
      "Ġremains": 4936,
      "Ġdrop": 4937,
      "Ġclaimed": 4938,
      "mÃ¬n": 4939,
      "ĠMax": 4940,
      "ĠBC": 4941,
      "light": 4942,
      "Ġincrease": 4943,
      "86": 4944,
      "ĠBir": 4945,
      "ĠLibrary": 4946,
      "Ġsubsequently": 4947,
      "Ġsister": 4948,
      "ĠSyd": 4949,
      "Ġdetail": 4950,
      "Ġbáº¹ÌĢráº¹ÌĢ": 4951,
      "Ġd'": 4952,
      "ĠUl": 4953,
      "Ġ1958": 4954,
      "-N": 4955,
      "Ġpercent": 4956,
      "ĠJean": 4957,
      "-5": 4958,
      "ĠGeorgia": 4959,
      "bo": 4960,
      "ties": 4961,
      "Ġopt": 4962,
      "antry": 4963,
      "Ġclubs": 4964,
      "ĠBerlin": 4965,
      "ĠVictoria": 4966,
      "raf": 4967,
      "Ġchem": 4968,
      "ires": 4969,
      "ocal": 4970,
      "Ġsey": 4971,
      "Ġappearances": 4972,
      "zy": 4973,
      "Ġoffered": 4974,
      "ers'": 4975,
      "ĠĊĠĊĊ": 4976,
      "Ġhistorical": 4977,
      "93": 4978,
      "ĠBand": 4979,
      "ĠLong": 4980,
      "Ġgbaj": 4981,
      "Ġfinancial": 4982,
      "ĠDevelopment": 4983,
      "icine": 4984,
      "ĠJul": 4985,
      "94": 4986,
      "pose": 4987,
      "gypt": 4988,
      "Ġmaster": 4989,
      "ĠMiddle": 4990,
      "Ġserving": 4991,
      "Ġcust": 4992,
      "Ġhot": 4993,
      "ĠSupreme": 4994,
      "Ġparticularly": 4995,
      "Ġinsp": 4996,
      "ĠCoast": 4997,
      "hens": 4998,
      "ĠSince": 4999,
      "Ġonline": 5000,
      "ĠMP": 5001,
      "ibli": 5002,
      "Ġ1943": 5003,
      "Ġaccom": 5004,
      "Ġolder": 5005,
      "Ġbatt": 5006,
      "Further": 5007,
      "reement": 5008,
      "Ġforced": 5009,
      "Ġenergy": 5010,
      "Ġimmedi": 5011,
      "ieutenant": 5012,
      "Ġstep": 5013,
      "ĠÃłrÃ¹n": 5014,
      "ĠShow": 5015,
      "Ġgoing": 5016,
      "Ed": 5017,
      "ech": 5018,
      "Ġtáº¹Ìģ": 5019,
      "Ġ1957": 5020,
      "Ġunivers": 5021,
      "Ġprob": 5022,
      "Ġ1940": 5023,
      "itage": 5024,
      "Ġpati": 5025,
      "Ġ1956": 5026,
      "ĠAmerika": 5027,
      "Ġtroops": 5028,
      "no": 5029,
      "ĠPrime": 5030,
      "Ġhours": 5031,
      "Ġregional": 5032,
      "Ġspecific": 5033,
      "ĠAlexander": 5034,
      "bers": 5035,
      "Ġded": 5036,
      "ĠIle": 5037,
      "Ġexc": 5038,
      "Ġacquired": 5039,
      "ĠMatt": 5040,
      "Ġraised": 5041,
      "ĠIraq": 5042,
      "ĠLu": 5043,
      "ulf": 5044,
      "Ġ1939": 5045,
      "ĠNaija": 5046,
      "ci": 5047,
      "ĠSpe": 5048,
      "ynast": 5049,
      "Ġsupported": 5050,
      "Polit": 5051,
      "arin": 5052,
      "Ġword": 5053,
      "ips": 5054,
      "Ġprem": 5055,
      "Ġquick": 5056,
      "Ġmostly": 5057,
      "Ġmunicipality": 5058,
      "action": 5059,
      "imum": 5060,
      "ĠOver": 5061,
      "ĠÃłwon": 5062,
      "range": 5063,
      "ĠAnton": 5064,
      "ĠSydney": 5065,
      "Ġgovern": 5066,
      "sáº¹ÌĢ": 5067,
      "Ġhelped": 5068,
      "ĠSerb": 5069,
      "Ġestim": 5070,
      "Ġcompeted": 5071,
      "rane": 5072,
      "Ġblock": 5073,
      "ologist": 5074,
      "nÃł": 5075,
      "pet": 5076,
      "Ġpa": 5077,
      "Ġfamous": 5078,
      "ĠRaj": 5079,
      "Ġlarger": 5080,
      "ĠTop": 5081,
      "ĠDun": 5082,
      "Ġ35": 5083,
      "ĠConst": 5084,
      "Ġissued": 5085,
      "Ġtakes": 5086,
      "BS": 5087,
      "ĠEastern": 5088,
      "Ġstay": 5089,
      "Ġappears": 5090,
      "Ġess": 5091,
      "ĠMuslim": 5092,
      "lÃŃ": 5093,
      "Ġpit": 5094,
      "--": 5095,
      "Is": 5096,
      "Ġmechan": 5097,
      "Ġ1959": 5098,
      "ĠColumbia": 5099,
      "sen": 5100,
      "Ġcarried": 5101,
      "mm": 5102,
      "agn": 5103,
      "Ġalways": 5104,
      "Ġ1941": 5105,
      "Ġincome": 5106,
      "orporated": 5107,
      "Ġfoot": 5108,
      "Ġmiddle": 5109,
      "Ġbelong": 5110,
      "Ġdiss": 5111,
      "33": 5112,
      "Ġsociety": 5113,
      "isher": 5114,
      "Ġtoday": 5115,
      "ĠMid": 5116,
      "mann": 5117,
      "2003": 5118,
      "Äį": 5119,
      "ulpt": 5120,
      "vement": 5121,
      "Ġlos": 5122,
      "yá»į": 5123,
      "ÑĢ": 5124,
      "ĠLater": 5125,
      "ĠEconom": 5126,
      "Ġcreate": 5127,
      "Ġmi": 5128,
      "ĠGame": 5129,
      "Ġvon": 5130,
      "Ġ\"a": 5131,
      "Ġjob": 5132,
      "ĠCreek": 5133,
      "Ġtechnology": 5134,
      "87": 5135,
      "97": 5136,
      "iat": 5137,
      "Ġbrand": 5138,
      "Ġmention": 5139,
      "Ġcateg": 5140,
      "Ġparties": 5141,
      "rÃŃn": 5142,
      "enz": 5143,
      "rovers": 5144,
      "2000": 5145,
      "akoso": 5146,
      "Ġstarting": 5147,
      "-E": 5148,
      "Mar": 5149,
      "Ġeastern": 5150,
      "ims": 5151,
      "Ġalleg": 5152,
      "Ġleaving": 5153,
      "Ġremain": 5154,
      "ĠDaniel": 5155,
      "ĠTem": 5156,
      "bourne": 5157,
      "ĠWeb": 5158,
      "ĠKenn": 5159,
      "âĢĵ17": 5160,
      "Ġcomment": 5161,
      "wide": 5162,
      "aven": 5163,
      "Ġforms": 5164,
      "Ã¨gbÃ¨": 5165,
      "rance": 5166,
      "Ġsn": 5167,
      "worth": 5168,
      "ulations": 5169,
      "Ġ\"s": 5170,
      "Ġreferred": 5171,
      "uer": 5172,
      "ronic": 5173,
      "Ġ1948": 5174,
      "||": 5175,
      "ĠTok": 5176,
      "Ġhospital": 5177,
      "ĠLes": 5178,
      "ricts": 5179,
      "ĠQueen": 5180,
      "aging": 5181,
      "ession": 5182,
      "Ġju": 5183,
      "ĠAnt": 5184,
      "ĠTechnology": 5185,
      "Ġproblems": 5186,
      "Ġbenef": 5187,
      "Ġâ": 5188,
      "iced": 5189,
      "urd": 5190,
      "Ġbelieved": 5191,
      "adelph": 5192,
      "ĠSom": 5193,
      "Ġmuseum": 5194,
      "ĠFI": 5195,
      "Ġká»įÌģ": 5196,
      "perial": 5197,
      "aju": 5198,
      "Ġorganizations": 5199,
      "Ġmurder": 5200,
      "rÃº": 5201,
      "vest": 5202,
      "98": 5203,
      "ias": 5204,
      "Ġrecords": 5205,
      "ĠBrad": 5206,
      "âĢĵ5": 5207,
      "Ġlonger": 5208,
      "ĠPo": 5209,
      "ĠWall": 5210,
      "Ġtracks": 5211,
      "ek": 5212,
      "ĠHung": 5213,
      "ĠJustice": 5214,
      "Ġprevent": 5215,
      "Ġ1952": 5216,
      "Ġfailed": 5217,
      "Ġmultiple": 5218,
      "63": 5219,
      "Ġexpatriate": 5220,
      "Ġminutes": 5221,
      "ares": 5222,
      "Ġweeks": 5223,
      "ĠgbÃł": 5224,
      "atively": 5225,
      "hew": 5226,
      "ĠTre": 5227,
      "teen": 5228,
      "nic": 5229,
      "ners": 5230,
      "Ġ1938": 5231,
      "Ġcultural": 5232,
      "EC": 5233,
      "uated": 5234,
      "ĠSpecial": 5235,
      "Ġawards": 5236,
      "Ġamount": 5237,
      "Art": 5238,
      "background": 5239,
      "selves": 5240,
      "rong": 5241,
      "erÃ©": 5242,
      "ĠdÃ©": 5243,
      "ĠCat": 5244,
      "ĠWater": 5245,
      "ĠEarth": 5246,
      "Ġthemselves": 5247,
      "Ġpromoted": 5248,
      "can": 5249,
      "ĠFour": 5250,
      "Ġarticle": 5251,
      "book": 5252,
      "German": 5253,
      "Ġcontin": 5254,
      "bÃ²": 5255,
      "ĠVill": 5256,
      "Ġcharge": 5257,
      "Ġchart": 5258,
      "adelphia": 5259,
      "ĠArm": 5260,
      "-K": 5261,
      "ĠAwá»įn": 5262,
      "Ġyouth": 5263,
      "ĠProject": 5264,
      "Ġaddress": 5265,
      "ĠPolice": 5266,
      "stein": 5267,
      "Ġsequ": 5268,
      "Ġtek": 5269,
      "74": 5270,
      "lÃ²": 5271,
      "Ġdire": 5272,
      "etro": 5273,
      "ternet": 5274,
      "Ġindividuals": 5275,
      "Music": 5276,
      "ĠdÃŃ": 5277,
      "Ġ1946": 5278,
      "enger": 5279,
      "Ġexperience": 5280,
      "Am": 5281,
      "ES": 5282,
      "class": 5283,
      "ĠCambridge": 5284,
      "ĠTheir": 5285,
      "Ġremaining": 5286,
      "ĠBi": 5287,
      "Ġcharg": 5288,
      "ously": 5289,
      "ĠRegiment": 5290,
      "plit": 5291,
      "Ġalign=center": 5292,
      "Ġtransferred": 5293,
      "Ġcities": 5294,
      "ĠHong": 5295,
      "ĠRel": 5296,
      "ĠÂ£": 5297,
      "ĠPremier": 5298,
      "According": 5299,
      "bl": 5300,
      "Ġsin": 5301,
      "ully": 5302,
      "Ġsexual": 5303,
      "ĠBol": 5304,
      "osoph": 5305,
      "Ni": 5306,
      "Ġredu": 5307,
      "Ġfifth": 5308,
      "Ġgot": 5309,
      "-te": 5310,
      "enge": 5311,
      "Ġgraduated": 5312,
      "ĠField": 5313,
      "Ġ3rd": 5314,
      "Ġmovie": 5315,
      "ĠKorean": 5316,
      "ĠArea": 5317,
      "thur": 5318,
      "ĠBrook": 5319,
      "Ġhouses": 5320,
      "fáº¹Ìģ": 5321,
      "ĠFore": 5322,
      "agon": 5323,
      "Ġconfir": 5324,
      "Ġfocus": 5325,
      "Ġpra": 5326,
      "ĠMir": 5327,
      "ĠagbÃ¨gbÃ¨": 5328,
      "96": 5329,
      "ĠBoy": 5330,
      "Ġ20th": 5331,
      "ĠOfficial": 5332,
      "Ð½": 5333,
      "Ġhapp": 5334,
      "rika": 5335,
      "amin": 5336,
      "ĠHuman": 5337,
      "ĠEp": 5338,
      "Ġpresented": 5339,
      "hin": 5340,
      "illed": 5341,
      "Ġ1950": 5342,
      "ĠBlue": 5343,
      "aud": 5344,
      "kÃ¡": 5345,
      "Ġour": 5346,
      "Ġpoor": 5347,
      "rice": 5348,
      "ledge": 5349,
      "88": 5350,
      "Ġexecutive": 5351,
      "Personal": 5352,
      "Ġpp": 5353,
      "ĠâĢĺ": 5354,
      "ĠElizabeth": 5355,
      "Be": 5356,
      "ĠYun": 5357,
      "Ġdeliver": 5358,
      "van": 5359,
      "Ġmarriage": 5360,
      "Ġlatter": 5361,
      "ĠEst": 5362,
      "ection": 5363,
      "Ġtable": 5364,
      "Ġpick": 5365,
      "Ġcandidate": 5366,
      "edd": 5367,
      "Ġcitizens": 5368,
      "ellig": 5369,
      "fÃł": 5370,
      "ĠInst": 5371,
      "Ġlay": 5372,
      "esi": 5373,
      "Ġbridge": 5374,
      "ĠMcK": 5375,
      "tario": 5376,
      "Ġletter": 5377,
      "-J": 5378,
      "jan": 5379,
      "ĠEgypt": 5380,
      "Ġarm": 5381,
      "d6d6": 5382,
      "ione": 5383,
      "ouri": 5384,
      "ĠLew": 5385,
      "MA": 5386,
      "erland": 5387,
      "Ġbomb": 5388,
      "Ġdespite": 5389,
      "Ġserve": 5390,
      "Ġcomposed": 5391,
      "E9E9": 5392,
      "ĠWá»įÌģn": 5393,
      "Ġbring": 5394,
      "Ġhar": 5395,
      "Ġchall": 5396,
      "Ġaffect": 5397,
      "Ġbrief": 5398,
      "inger": 5399,
      "âĢĵ199": 5400,
      "ydro": 5401,
      "ĠBusiness": 5402,
      "Ġvan": 5403,
      "Ġconsists": 5404,
      "HL": 5405,
      "Ġ19th": 5406,
      "Ġmek": 5407,
      "Ġminister": 5408,
      "weg": 5409,
      "ĠwÃ³n": 5410,
      "Ġnorm": 5411,
      "ronze": 5412,
      "secut": 5413,
      "From": 5414,
      "ging": 5415,
      "ients": 5416,
      "ĠCzech": 5417,
      "owa": 5418,
      "Ġmusicians": 5419,
      "Ġmerg": 5420,
      "Ġprovince": 5421,
      "bit": 5422,
      "Ġfellow": 5423,
      "ĠmÃŃ": 5424,
      "anguages": 5425,
      "ais": 5426,
      "ensis": 5427,
      "ĠAcc": 5428,
      "VID": 5429,
      "Ġre-": 5430,
      "Ġ1955": 5431,
      "Ġmeaning": 5432,
      "Ġcann": 5433,
      "ĠSports": 5434,
      "ĠLem": 5435,
      "ĠÃ¬á¹£": 5436,
      "77": 5437,
      "ĠBow": 5438,
      "quarters": 5439,
      "Ġseparate": 5440,
      "CC": 5441,
      "Ġface": 5442,
      "Ġlog": 5443,
      "ĠPers": 5444,
      "92": 5445,
      "Ġmakes": 5446,
      "emet": 5447,
      "track": 5448,
      "ancy": 5449,
      "Ġshoot": 5450,
      "Ġ1947": 5451,
      "ĠÃĢÃłráº¹": 5452,
      "etherlands": 5453,
      "Not": 5454,
      "Ġinteg": 5455,
      "ĠCard": 5456,
      "Ġvariety": 5457,
      "RA": 5458,
      "ĠFinal": 5459,
      "Ġleaders": 5460,
      "span": 5461,
      "a's": 5462,
      "ĠÃ¬pÃŃnláº¹ÌĢ": 5463,
      "rÃ²yÃ¬n": 5464,
      "Ġver": 5465,
      "âĢĵ6": 5466,
      "Ġvot": 5467,
      "Ġsurn": 5468,
      "Ġassistant": 5469,
      "Ġdifficult": 5470,
      "Ġile-": 5471,
      "ĠEnd": 5472,
      "Ġprogress": 5473,
      "ĠUkraine": 5474,
      "84": 5475,
      "ĠOtt": 5476,
      "Ñģ": 5477,
      "uries": 5478,
      "ĠDer": 5479,
      "umber": 5480,
      "ighter": 5481,
      "Ġchap": 5482,
      "Ġfest": 5483,
      "Ġinfluence": 5484,
      "Ġnative": 5485,
      "omer": 5486,
      "Ġheavy": 5487,
      "ĠOlympic": 5488,
      "Ġpath": 5489,
      "Ġbre": 5490,
      "olo": 5491,
      "apore": 5492,
      "Ġcollect": 5493,
      "Ġexcept": 5494,
      "Ġvalue": 5495,
      "Ġconsum": 5496,
      "Ġarrived": 5497,
      "ĠGree": 5498,
      "ĠWay": 5499,
      "Ġhere": 5500,
      "resp": 5501,
      "ĠForm": 5502,
      "ropical": 5503,
      "Ġipa": 5504,
      "Ġreduc": 5505,
      "ĠQueens": 5506,
      "Ġsail": 5507,
      "Ġcause": 5508,
      "Ġbr": 5509,
      "ÃłgbÃł": 5510,
      "Ġsecurity": 5511,
      "ĠÃłmÃ¬": 5512,
      "ĠProgram": 5513,
      "-áº¹ÌĢ": 5514,
      "áº¹ráº¹": 5515,
      "Ġhonor": 5516,
      "Ġconditions": 5517,
      "ĠMany": 5518,
      "ĠRou": 5519,
      "76": 5520,
      "rÃł": 5521,
      "inson": 5522,
      "Ġchairman": 5523,
      "ĠMore": 5524,
      "ĠCas": 5525,
      "ĠWind": 5526,
      "ĠCommon": 5527,
      "ĠJoh": 5528,
      "04": 5529,
      "een": 5530,
      "ĠDev": 5531,
      "ĠÃ²un": 5532,
      "Ġturned": 5533,
      "Ġmem": 5534,
      "ĠMur": 5535,
      "Ġgas": 5536,
      "ounds": 5537,
      "ĠAbd": 5538,
      "agb": 5539,
      "Ġroom": 5540,
      "ĠCorporation": 5541,
      "83": 5542,
      "Ġoil": 5543,
      "Ġincreasing": 5544,
      "Ġiniti": 5545,
      "ĠRay": 5546,
      "ependence": 5547,
      "Ġtabi": 5548,
      "eneral": 5549,
      "Ġalongside": 5550,
      "emy": 5551,
      "Ġcompl": 5552,
      "Ġsucceed": 5553,
      "uguese": 5554,
      "rupt": 5555,
      "ader": 5556,
      "Ġreform": 5557,
      "enness": 5558,
      "-O": 5559,
      "greg": 5560,
      "itude": 5561,
      "Ġcommit": 5562,
      "ĠMedal": 5563,
      "yin": 5564,
      "Ġpil": 5565,
      "ĠMinn": 5566,
      "ears": 5567,
      "Ġ1953": 5568,
      "Ġiá¹£": 5569,
      "Ġsurface": 5570,
      "Ġnature": 5571,
      "ĠJan": 5572,
      "Ġheart": 5573,
      "Ġdepart": 5574,
      "ĠSquad": 5575,
      "Ġasked": 5576,
      "2021": 5577,
      "Ġwinner": 5578,
      "ĠÄ": 5579,
      "oli": 5580,
      "Ġreason": 5581,
      "2002": 5582,
      "agh": 5583,
      "obile": 5584,
      "ĠOntario": 5585,
      "Ġspeed": 5586,
      "adÃł": 5587,
      "ipe": 5588,
      "rics": 5589,
      "ĠĠĠ": 5590,
      "Ġmainly": 5591,
      "Ġlabel": 5592,
      "ynasty": 5593,
      "ĠToronto": 5594,
      "ĠSweden": 5595,
      "Ġ65": 5596,
      "onn": 5597,
      "anga": 5598,
      "Ġdouble": 5599,
      "ĠÃģf": 5600,
      "Ġborder": 5601,
      "Ġnom": 5602,
      "Ġstars": 5603,
      "ĠJoe": 5604,
      "á¹¢": 5605,
      "Ġprovides": 5606,
      "Ġoperation": 5607,
      "Men's": 5608,
      "Ġwok": 5609,
      "eman": 5610,
      "ĠkejÃ¬": 5611,
      "DP": 5612,
      "lers": 5613,
      "erc": 5614,
      "Ġdone": 5615,
      "Ġadministrative": 5616,
      "Ġpal": 5617,
      "ocks": 5618,
      "Ġremoved": 5619,
      "olitan": 5620,
      "Will": 5621,
      "fa": 5622,
      "Ġmight": 5623,
      "Ġ\"R": 5624,
      "ĠHome": 5625,
      "Ġresponsible": 5626,
      "Ġtarg": 5627,
      "Ġ1970s": 5628,
      "Ġorigin": 5629,
      "Biography": 5630,
      "má»įÌģ": 5631,
      "ĠAthlet": 5632,
      "amber": 5633,
      "lywood": 5634,
      "ĠMaria": 5635,
      "Ġsaying": 5636,
      ")Ġ": 5637,
      "El": 5638,
      "oti": 5639,
      "osh": 5640,
      "istance": 5641,
      "Ġcrew": 5642,
      "lÃ³gÃºn": 5643,
      "rolled": 5644,
      "ĠHal": 5645,
      "ĠRod": 5646,
      "estab": 5647,
      "Ġvs": 5648,
      "dis": 5649,
      "resh": 5650,
      "ĠLittle": 5651,
      "Ġconstitu": 5652,
      "Ġadministration": 5653,
      "Ġparliament": 5654,
      "ĠAffairs": 5655,
      "orado": 5656,
      "Ġcorn": 5657,
      "Ġbáº¹Ìģáº¹ÌĢ": 5658,
      "ĠDown": 5659,
      "ĠWel": 5660,
      "ĠRevolution": 5661,
      "-to": 5662,
      "akers": 5663,
      "Ġpeak": 5664,
      "town": 5665,
      "Ġomi": 5666,
      "ĠJon": 5667,
      "mas": 5668,
      "uts": 5669,
      "Ġkind": 5670,
      "Ġjun": 5671,
      "Ġ1980s": 5672,
      "ault": 5673,
      "Ġ1954": 5674,
      "Ġelements": 5675,
      "Ġsusp": 5676,
      "astic": 5677,
      "ĠRegion": 5678,
      "ĠTod": 5679,
      "Ġrecent": 5680,
      "Ġimpact": 5681,
      "more": 5682,
      "Ġsource": 5683,
      "ĠCop": 5684,
      "Ġdeep": 5685,
      "ĠVan": 5686,
      "chestra": 5687,
      "iá¹£áº¹": 5688,
      "thing": 5689,
      "Ġiá¹£áº¹": 5690,
      "agun": 5691,
      "Ġvoice": 5692,
      "ĠStudies": 5693,
      "Ġnecess": 5694,
      "Ġhop": 5695,
      "Ġstories": 5696,
      "Ġenough": 5697,
      "Ġbad": 5698,
      "Ġki": 5699,
      "Ġvotes": 5700,
      "ĠjÃ¡de": 5701,
      "91": 5702,
      "uy": 5703,
      "esota": 5704,
      "ĠHou": 5705,
      "aped": 5706,
      "athan": 5707,
      "ĠAdminist": 5708,
      "Ġepisodes": 5709,
      "ĠFre": 5710,
      "ĠJeff": 5711,
      "Ġlikely": 5712,
      "ĠCOVID": 5713,
      "ĠPubl": 5714,
      "Ġgovernor": 5715,
      "Ġven": 5716,
      "ĠUSA": 5717,
      "Ġproducts": 5718,
      "Ġsources": 5719,
      "Ġrugby": 5720,
      "Ġconducted": 5721,
      "ibliography": 5722,
      "ĠThree": 5723,
      "ĠPhiladelphia": 5724,
      "ĠTurkey": 5725,
      "Olymp": 5726,
      "Ãĵ": 5727,
      "Ġang": 5728,
      "Ġcard": 5729,
      "ĠAy": 5730,
      "Ġtold": 5731,
      "Ġdead": 5732,
      "Ġsubs": 5733,
      "Ġco-": 5734,
      "Ġdirectly": 5735,
      "Ġnation": 5736,
      "ĠTa": 5737,
      "Ġwithd": 5738,
      ",Ċ": 5739,
      "imo": 5740,
      "ĠLy": 5741,
      "Ġchampion": 5742,
      "onsin": 5743,
      "Ġcovered": 5744,
      "Ġbehav": 5745,
      "Ġmunicipal": 5746,
      "34": 5747,
      "Ġwing": 5748,
      "alion": 5749,
      "chni": 5750,
      "Ġleave": 5751,
      "Ġresidents": 5752,
      "ixed": 5753,
      "Ab": 5754,
      "Ġsubst": 5755,
      "ĠAvenue": 5756,
      "ĠNetherlands": 5757,
      "Ġdisplay": 5758,
      "Awards": 5759,
      "Sw": 5760,
      "acity": 5761,
      "2001": 5762,
      "Ġofficially": 5763,
      "Ġlisting": 5764,
      "ĠBrig": 5765,
      "Ġconsider": 5766,
      "Ġaffili": 5767,
      "ĠWinter": 5768,
      "rical": 5769,
      "ĠWork": 5770,
      "Ġmanaged": 5771,
      "di": 5772,
      "s'": 5773,
      "isconsin": 5774,
      "ÌŁ": 5775,
      "Ġbranch": 5776,
      "get": 5777,
      "Ġthr": 5778,
      "ager": 5779,
      "International": 5780,
      "Ġcounter": 5781,
      "ĠNaz": 5782,
      "ĠJes": 5783,
      "Ġwhole": 5784,
      "Ġ1936": 5785,
      "Ġnearby": 5786,
      "ĠTay": 5787,
      "Ġpositive": 5788,
      "Ġfinish": 5789,
      "ĉĊ": 5790,
      "Ġtok": 5791,
      "Ġcaptain": 5792,
      "ĠkÃ³pa": 5793,
      "Ġautom": 5794,
      "Bl": 5795,
      "Ġsem": 5796,
      "arp": 5797,
      "ĠCy": 5798,
      "ava": 5799,
      "ĠorÃºká»į": 5800,
      "Ġdemonst": 5801,
      "ĠBudd": 5802,
      "Ġspread": 5803,
      "orter": 5804,
      "urches": 5805,
      "ĠFair": 5806,
      "Ġagbe": 5807,
      "kin": 5808,
      "icted": 5809,
      "Ġ2:": 5810,
      "ĠRome": 5811,
      "ĠagbÃ¡": 5812,
      "ĠMalays": 5813,
      "uri": 5814,
      "Ġsculpt": 5815,
      "Ġpainting": 5816,
      "Ġtreatment": 5817,
      "Ġextended": 5818,
      "Ġprominent": 5819,
      "Ġparticipated": 5820,
      "Ac": 5821,
      "uns": 5822,
      "ĠColl": 5823,
      "ĠDuke": 5824,
      "ĠWild": 5825,
      "Ġba": 5826,
      "Ġforward": 5827,
      "Ġeffects": 5828,
      "Ġancient": 5829,
      "ĠGolden": 5830,
      "Ġrevealed": 5831,
      "GB": 5832,
      "ĠBatt": 5833,
      "Ġáº¹ni": 5834,
      "Ġsolo": 5835,
      "Ġinitial": 5836,
      "icks": 5837,
      "Ġlevels": 5838,
      "ĠPeak": 5839,
      "ois": 5840,
      "ÃłÃł": 5841,
      "Ġ1951": 5842,
      "Ġtitles": 5843,
      "ĠjÃ¹lá»į": 5844,
      "Ġtáº¹": 5845,
      "Ġpan": 5846,
      "Ġtouch": 5847,
      "undred": 5848,
      "Ġ33": 5849,
      "Ġcontinue": 5850,
      "ĠWars": 5851,
      "ĠSher": 5852,
      "Ġregist": 5853,
      "Ġnumbers": 5854,
      "ĠPrimary": 5855,
      "89": 5856,
      "gÃ¹n": 5857,
      "living": 5858,
      "Ġcontrovers": 5859,
      "Ġreplace": 5860,
      "Ġpage": 5861,
      "aga": 5862,
      "writer": 5863,
      "isa": 5864,
      "ĠNigerian": 5865,
      "-team": 5866,
      "IN": 5867,
      "South": 5868,
      "enes": 5869,
      "Ġchannel": 5870,
      "Ġshi": 5871,
      "ĠSwedish": 5872,
      "unte": 5873,
      "rie": 5874,
      "Ġcerem": 5875,
      "ĠÃłká»įÌģká»įÌģ": 5876,
      "66": 5877,
      "nu": 5878,
      "Ã¼r": 5879,
      "Ġprimarily": 5880,
      "Ġsettlement": 5881,
      "ennessee": 5882,
      "yal": 5883,
      "Ġathlet": 5884,
      "Ġassigned": 5885,
      "ĠCountry": 5886,
      "align=": 5887,
      "ĠAv": 5888,
      "ĠPen": 5889,
      "Ġsites": 5890,
      "ĠInt": 5891,
      "ĠColon": 5892,
      "Ġ1949": 5893,
      "Ġdrug": 5894,
      "Ġsilver": 5895,
      "illy": 5896,
      "ading": 5897,
      "lyn": 5898,
      "uled": 5899,
      "odi": 5900,
      "Ġáº¸ÌĢ": 5901,
      "Ġwanted": 5902,
      "Ġ80": 5903,
      "Ġtre": 5904,
      "edia": 5905,
      "orney": 5906,
      "ounded": 5907,
      "Ġult": 5908,
      "Ġnucle": 5909,
      "Ġlives": 5910,
      "Ġcycl": 5911,
      "World": 5912,
      "onald": 5913,
      "Ġrural": 5914,
      "ĠEko": 5915,
      "ĠLegisl": 5916,
      "ĠLady": 5917,
      "Ã©e": 5918,
      "Ġimplement": 5919,
      "ĠSciences": 5920,
      "Ġá»įÌĢpá»įÌĢ": 5921,
      "Ġinstitutions": 5922,
      ").Ġ": 5923,
      "Ġpiano": 5924,
      "ĠPit": 5925,
      "Ġplans": 5926,
      "Ġnotable": 5927,
      "ĠBarb": 5928,
      "ĠMedia": 5929,
      "Ġrenamed": 5930,
      "Ġgrowth": 5931,
      "Ġfirm": 5932,
      "ented": 5933,
      "Ġdiscovered": 5934,
      "TC": 5935,
      "Ġut": 5936,
      "Ġsal": 5937,
      "Ġfort": 5938,
      "ĠLight": 5939,
      "Ġconfl": 5940,
      "Ġdivided": 5941,
      "Ġconstructed": 5942,
      "ÑĤ": 5943,
      "Ġphysical": 5944,
      "Nov": 5945,
      "Ġnig": 5946,
      "iginal": 5947,
      "Ġ32": 5948,
      "Ġproduce": 5949,
      "With": 5950,
      "ĠTal": 5951,
      "ĠMoh": 5952,
      "ĠBec": 5953,
      "imal": 5954,
      "Ġconcept": 5955,
      "ĠStephen": 5956,
      "ĠBos": 5957,
      "ĠBaseball": 5958,
      "French": 5959,
      "ishes": 5960,
      "Ġboy": 5961,
      "weight": 5962,
      "orge": 5963,
      "Ġdark": 5964,
      "ensity": 5965,
      "ĠKáº¹": 5966,
      "Ġgrew": 5967,
      "1999": 5968,
      "ĠojÃº": 5969,
      "Ġwhether": 5970,
      "Ġfinally": 5971,
      "ĠPakistan": 5972,
      "Ġrule": 5973,
      "Ġstyle=\"background": 5974,
      "ĠForeign": 5975,
      "ĠMic": 5976,
      "ĠRog": 5977,
      "Ġdisp": 5978,
      "Ġfounder": 5979,
      "apers": 5980,
      "Ġflag": 5981,
      ".ĉ": 5982,
      "ĠBre": 5983,
      "left\"": 5984,
      "5%": 5985,
      "Ġbal": 5986,
      "oud": 5987,
      "iring": 5988,
      "Ġ1915": 5989,
      "orning": 5990,
      "Ġrecover": 5991,
      "ĠClark": 5992,
      "Ġ1937": 5993,
      "ĠUN": 5994,
      "Ġ1960s": 5995,
      "64": 5996,
      "fort": 5997,
      "ĠMemorial": 5998,
      "Ġlif": 5999,
      "ĠNic": 6000,
      "Ġ\"O": 6001,
      "=\"left\"": 6002,
      "Ġsoldiers": 6003,
      "Ġacademic": 6004,
      "Austral": 6005,
      "wegian": 6006,
      "Ġ4:": 6007,
      "Ġnearly": 6008,
      "Olympic": 6009,
      "ĠRom": 6010,
      "ĠLt": 6011,
      "ĠMexican": 6012,
      "73": 6013,
      "TA": 6014,
      "ĠDam": 6015,
      "Ġrad": 6016,
      "Ġconver": 6017,
      "iform": 6018,
      "peror": 6019,
      "ĠIndust": 6020,
      "rade": 6021,
      "Ġ1935": 6022,
      "ĠBaron": 6023,
      "Ġera": 6024,
      "respond": 6025,
      "Back": 6026,
      "Ġfo": 6027,
      "usc": 6028,
      "uls": 6029,
      "Ġproblem": 6030,
      "ĠTy": 6031,
      "estic": 6032,
      "ĠKal": 6033,
      "reng": 6034,
      "ĠSlov": 6035,
      "ĠFrancis": 6036,
      "met": 6037,
      "odies": 6038,
      "ello": 6039,
      "MS": 6040,
      "Track": 6041,
      "Ġplants": 6042,
      "portun": 6043,
      "Ġability": 6044,
      "Ġillust": 6045,
      "Ġbasis": 6046,
      "Ġclear": 6047,
      "arry": 6048,
      "ĠEarl": 6049,
      "ashi": 6050,
      "Ġfemales": 6051,
      "ributed": 6052,
      "ĠAj": 6053,
      "ĠĊĠĊĠĊĠĊ": 6054,
      "Ġsemi": 6055,
      "bass": 6056,
      "hÃ¹n": 6057,
      "lov": 6058,
      "itled": 6059,
      "Ġcat": 6060,
      "ĠMain": 6061,
      "Ġteacher": 6062,
      "Ġintended": 6063,
      "ĠSab": 6064,
      "ĠBishop": 6065,
      "ĠFollowing": 6066,
      "ĠCommunity": 6067,
      "Ġcells": 6068,
      "Ġtypes": 6069,
      "Ġquickly": 6070,
      "01": 6071,
      "olis": 6072,
      "aded": 6073,
      "Ġreach": 6074,
      "ĠRad": 6075,
      "ĠKel": 6076,
      "Ġfeaturing": 6077,
      "Ġordered": 6078,
      "Ġofficials": 6079,
      "Ġdigital": 6080,
      "Ġos": 6081,
      "Ġpaper": 6082,
      "ĠCa": 6083,
      "Ġquestion": 6084,
      "anth": 6085,
      "Ġrepe": 6086,
      "ĠMarsh": 6087,
      "ĠGuard": 6088,
      "heim": 6089,
      "Ġidea": 6090,
      "ĠSanta": 6091,
      "igenous": 6092,
      "Ġtal": 6093,
      "Ġsport": 6094,
      "Ġconference": 6095,
      "ĠÃłp": 6096,
      "asters": 6097,
      "kÃ¹nrin": 6098,
      "iang": 6099,
      "ĠJunior": 6100,
      "iqu": 6101,
      "aro": 6102,
      "ĠZh": 6103,
      "ening": 6104,
      "Ġmá»įÌĢ": 6105,
      "ĠGer": 6106,
      "umed": 6107,
      "ĠChap": 6108,
      "iko": 6109,
      "Ġswim": 6110,
      "Ġwinners": 6111,
      "Ġly": 6112,
      "Ġfigure": 6113,
      "rat": 6114,
      "ĠyÃ³Ã²": 6115,
      "-day": 6116,
      "Ġmixed": 6117,
      "pson": 6118,
      "Ġagric": 6119,
      "Ġfacilities": 6120,
      "eline": 6121,
      "ĠEle": 6122,
      "Ġuns": 6123,
      "oration": 6124,
      "Ġhighly": 6125,
      "Ġtemper": 6126,
      "Ġaccepted": 6127,
      "Ġ1918": 6128,
      "Ġhouseholds": 6129,
      "Ġtim": 6130,
      "ĠHamp": 6131,
      "ĠVen": 6132,
      "Ġflight": 6133,
      "Ġpotential": 6134,
      "ĠPhilippines": 6135,
      "Ġdedicated": 6136,
      "Awá»įn": 6137,
      "By": 6138,
      "ĠNorway": 6139,
      "like": 6140,
      "opher": 6141,
      "Ġworkers": 6142,
      "Ġmaintain": 6143,
      "ká»įÌĢá»įÌģ": 6144,
      "ĠCOVID-19": 6145,
      "Ġfavor": 6146,
      "wick": 6147,
      "Ġmess": 6148,
      "Ġattend": 6149,
      "ĠMedical": 6150,
      "ĠProfessor": 6151,
      "ĠFederation": 6152,
      "ĠRet": 6153,
      "ĠGreece": 6154,
      "Ġparish": 6155,
      "ĠBuild": 6156,
      "Ġarchitecture": 6157,
      "aug": 6158,
      "yÃ¡": 6159,
      "Ġsens": 6160,
      "Ġcomposer": 6161,
      "-le": 6162,
      "ĠHan": 6163,
      "Ġactivity": 6164,
      "Ġwalk": 6165,
      "agu": 6166,
      "eller": 6167,
      "Ġmedalists": 6168,
      "Ġestimated": 6169,
      "ĠBoth": 6170,
      "ĠIV": 6171,
      "Ġdeclared": 6172,
      "ĠMinnesota": 6173,
      "Women": 6174,
      "|Ċ|": 6175,
      "Ġfestival": 6176,
      "Ġnovels": 6177,
      "iot": 6178,
      "Ġcab": 6179,
      "ĠHay": 6180,
      "ĠnÃŃbi": 6181,
      "wealth": 6182,
      "Ġspirit": 6183,
      "ĠSingapore": 6184,
      "Ġdance": 6185,
      "ĠMun": 6186,
      "Ġstreet": 6187,
      "ĠChile": 6188,
      "ucky": 6189,
      "Ġperman": 6190,
      "Ġdisease": 6191,
      "emetery": 6192,
      "When": 6193,
      "ĠIndiana": 6194,
      "Ġfriends": 6195,
      "-old": 6196,
      "Ġgreen": 6197,
      "ĠKir": 6198,
      "Ġ\"N": 6199,
      "Ġagreement": 6200,
      "Ġjoint": 6201,
      "54": 6202,
      "Ġurban": 6203,
      "acter": 6204,
      "1%": 6205,
      "Ġinh": 6206,
      "ĠMaster": 6207,
      "ĠEntertainment": 6208,
      "Ġunknown": 6209,
      "ynam": 6210,
      "Å«": 6211,
      "Ġmu": 6212,
      "Ġcapacity": 6213,
      "Ġliterature": 6214,
      "rep": 6215,
      "ĠAtt": 6216,
      "Ġfeel": 6217,
      "Ġpoll": 6218,
      "Ġgraph": 6219,
      "ĠFire": 6220,
      "ante": 6221,
      "Ġprogramming": 6222,
      "ilo": 6223,
      "Ġcomputer": 6224,
      "ĠAirport": 6225,
      "Ġapproach": 6226,
      "ĠgbajÃº": 6227,
      "amm": 6228,
      "Ġ1914": 6229,
      "Ġarticles": 6230,
      "Geography": 6231,
      "ĠWisconsin": 6232,
      "Ġtechni": 6233,
      "Sec": 6234,
      "hy": 6235,
      "ĠÃŃ": 6236,
      "Ã¡d": 6237,
      "itional": 6238,
      "Ġcolumn": 6239,
      "Ġadopted": 6240,
      "82": 6241,
      "ĠTennessee": 6242,
      "ĠPower": 6243,
      "ĠReview": 6244,
      "Ġterritory": 6245,
      "Ġengineer": 6246,
      "vo": 6247,
      "Ġmá»į": 6248,
      "Ġpositions": 6249,
      "ĠDespite": 6250,
      "Ġdirection": 6251,
      "Ġorganized": 6252,
      "bal": 6253,
      "ocated": 6254,
      "ymn": 6255,
      "Ġbecomes": 6256,
      "SP": 6257,
      "Trans": 6258,
      "het": 6259,
      "Ġrid": 6260,
      "ĠÃ¬bÃŃ": 6261,
      "IA": 6262,
      "Ġdomin": 6263,
      "Ġcontent": 6264,
      "-sh": 6265,
      "Ġ+": 6266,
      "ĠLeon": 6267,
      "Ġmoving": 6268,
      "Ġtowns": 6269,
      "hemat": 6270,
      "53": 6271,
      "Cast": 6272,
      "Ġlies": 6273,
      "eld": 6274,
      "Ġsecret": 6275,
      "Ġneighbor": 6276,
      "ĠMunicip": 6277,
      "ĠStat": 6278,
      "Ġ1933": 6279,
      "Ġoperating": 6280,
      "His": 6281,
      "IC": 6282,
      "ĠMen": 6283,
      "ĠMember": 6284,
      "ĠLind": 6285,
      "ĠFox": 6286,
      "ĠEth": 6287,
      "Ġ4th": 6288,
      "Ġagreed": 6289,
      "ĠPolit": 6290,
      "Populated": 6291,
      "ĠSev": 6292,
      "elle": 6293,
      "Ġscene": 6294,
      "erald": 6295,
      "ĠAdd": 6296,
      "Ġlargely": 6297,
      "ĠSus": 6298,
      "unct": 6299,
      "ĠFle": 6300,
      "ographic": 6301,
      "ĠCaptain": 6302,
      "lah": 6303,
      "Ġwords": 6304,
      "Ġbeat": 6305,
      "Ġ\"f": 6306,
      "Ġattention": 6307,
      "Ġweap": 6308,
      "Ġplanned": 6309,
      "Ġrat": 6310,
      "Ã²rÃ¹n": 6311,
      "Ġ1919": 6312,
      "ĠsÃŃláº¹ÌĢ": 6313,
      "pass": 6314,
      "Ġdipl": 6315,
      "Ġgiving": 6316,
      "Ġgained": 6317,
      "ĠWrit": 6318,
      "ighth": 6319,
      "force": 6320,
      "Ġneeded": 6321,
      "ĠWilson": 6322,
      "ĠwÃŃpÃ©": 6323,
      "ĠEngineering": 6324,
      "tá»įÌĢ": 6325,
      "uties": 6326,
      "Ġyet": 6327,
      "1998": 6328,
      "Ġblood": 6329,
      "Ġrules": 6330,
      "Ġshare": 6331,
      "Ġfaculty": 6332,
      ":#": 6333,
      "bec": 6334,
      "cu": 6335,
      "alo": 6336,
      "ĠCab": 6337,
      "omot": 6338,
      "ĠChris": 6339,
      "Ġ1932": 6340,
      "ĠVietnam": 6341,
      "Ġequipment": 6342,
      "ĠBurn": 6343,
      "Ã¬mÃ¹": 6344,
      "ulo": 6345,
      "Ġrespectively": 6346,
      "ĊĊĠĊ": 6347,
      "2022": 6348,
      "ervative": 6349,
      "ĠAnth": 6350,
      "Play": 6351,
      "Ġroles": 6352,
      "ĠColorado": 6353,
      "Ġformat": 6354,
      "Ġprojects": 6355,
      "43": 6356,
      "79": 6357,
      "zona": 6358,
      "iran": 6359,
      "ansion": 6360,
      "enna": 6361,
      "ski": 6362,
      "Ġple": 6363,
      "ĠPeople's": 6364,
      "-off": 6365,
      "vard": 6366,
      "Ġopportun": 6367,
      "ashion": 6368,
      "Ġmotor": 6369,
      "ĠHouston": 6370,
      "Ġlanguages": 6371,
      "Ġ1917": 6372,
      "oselu": 6373,
      "Ġmountain": 6374,
      "watch": 6375,
      "á»įá»į": 6376,
      "ĠBridge": 6377,
      "Ġ1990s": 6378,
      "ĠSquadron": 6379,
      "Ġhor": 6380,
      "olved": 6381,
      "andon": 6382,
      "ĠDavis": 6383,
      "works": 6384,
      "}}": 6385,
      "Ãª": 6386,
      "ĠTan": 6387,
      "ĠTest": 6388,
      "abama": 6389,
      "Ã¹gbá»įÌģn": 6390,
      "ĠPortuguese": 6391,
      "ĠBooks": 6392,
      "500": 6393,
      "Bibliography": 6394,
      "Ġexpected": 6395,
      "Ġupper": 6396,
      "Ġ1930": 6397,
      "ĠobÃ¬nrin": 6398,
      "ropolitan": 6399,
      "Ã¢": 6400,
      "Ġconne": 6401,
      "ĠStand": 6402,
      "á»įÌģá»įÌĢ": 6403,
      "Ġfloor": 6404,
      "1997": 6405,
      "Ġpresence": 6406,
      "72": 6407,
      "LA": 6408,
      "ĠTai": 6409,
      "ĠMike": 6410,
      "Ġvac": 6411,
      "Ġargu": 6412,
      "rainian": 6413,
      "ĠLabor": 6414,
      "ĠKaz": 6415,
      "Ġsmaller": 6416,
      "urance": 6417,
      "Ġhistoric": 6418,
      "Ġcaptured": 6419,
      "Ġefforts": 6420,
      "glas": 6421,
      "Ġlabor": 6422,
      "Ġ1922": 6423,
      "ĠIndones": 6424,
      "itzerland": 6425,
      "Ġpurchased": 6426,
      "Ġ;": 6427,
      "Ġá»įjá»į": 6428,
      "Ġ36": 6429,
      "ruit": 6430,
      "iya": 6431,
      "urer": 6432,
      "ĠDrag": 6433,
      "Ġcompared": 6434,
      "Ġcoal": 6435,
      "ĠSu": 6436,
      "ĠHy": 6437,
      "ĠrÃ¨": 6438,
      "ĠlÃ¡Ãł": 6439,
      "Television": 6440,
      "real": 6441,
      "sey": 6442,
      "zer": 6443,
      "Ġcars": 6444,
      "Ġacting": 6445,
      "Ġrom": 6446,
      "Ġfiction": 6447,
      "Ġtitled": 6448,
      "ĠFellow": 6449,
      "ĠÃ¬má»įÌĢ": 6450,
      "Ġtrial": 6451,
      "ĠAustria": 6452,
      "Ġdestroyed": 6453,
      "Canadian": 6454,
      "elligence": 6455,
      "En": 6456,
      "Song": 6457,
      "rog": 6458,
      "Ġmicro": 6459,
      "izes": 6460,
      "Ġcontest": 6461,
      "ĠManagement": 6462,
      "related": 6463,
      "ĠStadium": 6464,
      "Ġcolor": 6465,
      "Ġbillion": 6466,
      "ĠAut": 6467,
      "ĠSte": 6468,
      "Ã³mÃ¬n": 6469,
      "ĠÃłÃ¬": 6470,
      "Ġrow": 6471,
      "Ġmetal": 6472,
      "7%": 6473,
      "Football": 6474,
      "Ġconcent": 6475,
      "ĠDec": 6476,
      "ĠForest": 6477,
      "-class": 6478,
      "ĠAlf": 6479,
      "Ġhosted": 6480,
      "Ġjournalist": 6481,
      "Ġhol": 6482,
      "Ġ1934": 6483,
      "ĠAtlantic": 6484,
      "ĠLewis": 6485,
      "55": 6486,
      "orship": 6487,
      "ĠFamily": 6488,
      "Ġextra": 6489,
      "i's": 6490,
      "Ġrecomm": 6491,
      "Ġcommittee": 6492,
      "Ġcommonly": 6493,
      "Ġcombined": 6494,
      "ĠRepresentatives": 6495,
      "sÃ¬n": 6496,
      "{{": 6497,
      "Ġwidely": 6498,
      "Ġimmediately": 6499,
      "Äĥ": 6500,
      "Ġtheatre": 6501,
      "itable": 6502,
      "Ġmax": 6503,
      "ĠNetwork": 6504,
      "Ġpeace": 6505,
      "ĠAmericans": 6506,
      "Ġbackground": 6507,
      "ĠHighway": 6508,
      "Ġreviews": 6509,
      "Ġinstrument": 6510,
      "Ġfolk": 6511,
      "Ġpup": 6512,
      "Ġdistance": 6513,
      "Ġmill": 6514,
      "ĠKim": 6515,
      "ĠCommand": 6516,
      "Ġtypically": 6517,
      "Ġoccurred": 6518,
      "ĠDu": 6519,
      "ĠGreg": 6520,
      "á¹£erÃ©": 6521,
      "Ġexchange": 6522,
      "Ġarts": 6523,
      "Ġblue": 6524,
      "166": 6525,
      "á¹£Ã¨lÃº": 6526,
      "ĠCroat": 6527,
      "ĠLo": 6528,
      "Ġ399": 6529,
      "exual": 6530,
      "lá»įpá»įÌĢ": 6531,
      "ĠHawai": 6532,
      "ĊĠĊ": 6533,
      "Ġfish": 6534,
      "Ġstone": 6535,
      "osis": 6536,
      "coln": 6537,
      "ĠRD2": 6538,
      "Ġetc": 6539,
      "ĠCrime": 6540,
      "Ġleaves": 6541,
      "Tax": 6542,
      "à¸": 6543,
      "ĠUs": 6544,
      "Ġsuffered": 6545,
      "igrants": 6546,
      "grad": 6547,
      "Ġfast": 6548,
      "Ġhabit": 6549,
      "omon": 6550,
      "rawn": 6551,
      "ĠSav": 6552,
      "ÅŁ": 6553,
      "incial": 6554,
      "Ġbronze": 6555,
      "ĠDomin": 6556,
      "ĠOffic": 6557,
      "03": 6558,
      "EA": 6559,
      "bell": 6560,
      "erick": 6561,
      "an's": 6562,
      "ito": 6563,
      "ĠRen": 6564,
      "Ġraces": 6565,
      "Ġdistricts": 6566,
      "ĠEP": 6567,
      "Ġdrums": 6568,
      "Ġeducated": 6569,
      "100": 6570,
      "Ġwrest": 6571,
      "Ġcomes": 6572,
      "Ġcontemporary": 6573,
      "eather": 6574,
      "1996": 6575,
      "Ġexpanded": 6576,
      "mentary": 6577,
      "aja": 6578,
      "Ġassess": 6579,
      "Ġoloselu": 6580,
      "Ġipin": 6581,
      "CAA": 6582,
      "ĠRoss": 6583,
      "Ġstreng": 6584,
      "ression": 6585,
      "ĠManchester": 6586,
      "Ġcorrespond": 6587,
      "Ġphysic": 6588,
      "RS": 6589,
      "Ġogun": 6590,
      "stron": 6591,
      "ĠjÃ©": 6592,
      "Ġelim": 6593,
      "Ġpurpose": 6594,
      "Ġanalysis": 6595,
      "illery": 6596,
      "ibly": 6597,
      "Ġranked": 6598,
      "2%": 6599,
      "Ap": 6600,
      "Ġpack": 6601,
      "Ġbus": 6602,
      "ivals": 6603,
      "71": 6604,
      "ĠDar": 6605,
      "ruce": 6606,
      "Ġresulted": 6607,
      "Ġnort": 6608,
      "Ġengineering": 6609,
      "ije": 6610,
      "iva": 6611,
      "Ġconclud": 6612,
      "Ġweight": 6613,
      "Ġagbegbe": 6614,
      "pÃ²": 6615,
      "ĠRem": 6616,
      "ayÃ©": 6617,
      "1989": 6618,
      "ĠCirc": 6619,
      "ĠgÃŃ": 6620,
      "ĠOcean": 6621,
      "ambig": 6622,
      "48": 6623,
      "ĠHind": 6624,
      "Ġconcert": 6625,
      "Ġsevent": 6626,
      "Ġcontact": 6627,
      "Ġattract": 6628,
      "Ġtherefore": 6629,
      "Ġ1928": 6630,
      "Ġjudge": 6631,
      "ĠCastle": 6632,
      "Ġnet": 6633,
      "Ġthous": 6634,
      "Ġsymb": 6635,
      "ĠMissouri": 6636,
      "-ede": 6637,
      "orph": 6638,
      "Ġpair": 6639,
      "Ã¡Ã¬": 6640,
      "opa": 6641,
      "Ġ\"d": 6642,
      "apo": 6643,
      "Ġprobably": 6644,
      "Ne": 6645,
      "fe": 6646,
      "asáº¹": 6647,
      "eta": 6648,
      "Ġretire": 6649,
      "Ġcritical": 6650,
      "Ġcouple": 6651,
      "Background": 6652,
      "ĠRights": 6653,
      "ĠGallery": 6654,
      "Ġowner": 6655,
      "Ġdocumentary": 6656,
      "Sing": 6657,
      "Ġsplit": 6658,
      "ĠAlabama": 6659,
      "Ġconfirmed": 6660,
      "Ġthink": 6661,
      "rage": 6662,
      "-pro": 6663,
      "former": 6664,
      "William": 6665,
      "ĠBall": 6666,
      "ĠStaff": 6667,
      "onym": 6668,
      "PC": 6669,
      "ĠNFL": 6670,
      "Ġsoftware": 6671,
      "Ã«": 6672,
      "ÃĪ": 6673,
      "iling": 6674,
      "Ġresulting": 6675,
      "Ġdoub": 6676,
      "jÃ²": 6677,
      "ÃĴ": 6678,
      "alle": 6679,
      "Ġ1923": 6680,
      "Ġvess": 6681,
      "Ġestate": 6682,
      "Ġ90": 6683,
      "-year-old": 6684,
      "ĠEbun": 6685,
      "ban": 6686,
      "kh": 6687,
      "usion": 6688,
      "ĠNev": 6689,
      "ĠGro": 6690,
      "ables": 6691,
      "Ġ500": 6692,
      "Ġprep": 6693,
      "lahoma": 6694,
      "gn": 6695,
      "Ġfim": 6696,
      "Ġ1921": 6697,
      "Af": 6698,
      "Sources": 6699,
      "ĠinÃº": 6700,
      "Ġ\"c": 6701,
      "1995": 6702,
      "ĠConf": 6703,
      "ecutive": 6704,
      "ĠTaylor": 6705,
      "unch": 6706,
      "Ġserves": 6707,
      "Ġauthorities": 6708,
      "Ä«": 6709,
      "ĠOt": 6710,
      "iant": 6711,
      "Ġcoming": 6712,
      "ĠIns": 6713,
      "Ġopin": 6714,
      "ething": 6715,
      "46": 6716,
      "báº¹ÌĢráº¹ÌĢ": 6717,
      "aling": 6718,
      "ĠÃ¬f": 6719,
      "ĠĊĊĉ": 6720,
      "Ġquality": 6721,
      "uj": 6722,
      "Ġojo": 6723,
      "enti": 6724,
      "Ġbegins": 6725,
      "wÃ¡jÃº": 6726,
      "ĠWeek": 6727,
      "Ġsearch": 6728,
      "Ġmentioned": 6729,
      "SR": 6730,
      "chi": 6731,
      "Ġstra": 6732,
      "ĠChair": 6733,
      "ĠÃłkÃ³": 6734,
      "Ġyi": 6735,
      "ĠAdam": 6736,
      "uate": 6737,
      "Ġ)": 6738,
      "adan": 6739,
      "ĠGhana": 6740,
      "rum": 6741,
      "ĠOri": 6742,
      "Ġpolitics": 6743,
      "regon": 6744,
      "inema": 6745,
      "Ġtree": 6746,
      "ĠBalt": 6747,
      "gbon": 6748,
      "ĠBrother": 6749,
      "Death": 6750,
      "achelor": 6751,
      "Ġdat": 6752,
      "ĠHard": 6753,
      "ĠArthur": 6754,
      "Ġreduced": 6755,
      "ambiguation": 6756,
      "81": 6757,
      "ĠTak": 6758,
      "Ġ70": 6759,
      "Ġdistribution": 6760,
      "ĠTrust": 6761,
      "net": 6762,
      "Ġliber": 6763,
      "ÃŃá¹£": 6764,
      "ĠPsych": 6765,
      "1994": 6766,
      "Ġ1929": 6767,
      "note": 6768,
      "ĠCur": 6769,
      "ivity": 6770,
      "ĠDiv": 6771,
      "ĠMarc": 6772,
      "sky": 6773,
      "orin": 6774,
      "stan": 6775,
      "Ġarg": 6776,
      "Ġinterp": 6777,
      "ĠAfrika": 6778,
      "Japan": 6779,
      "Ġnem": 6780,
      "1992": 6781,
      "Ġproviding": 6782,
      "Ġsituation": 6783,
      "Ġperformances": 6784,
      "ĠÃ¬gb": 6785,
      "rÃŃkÃł": 6786,
      "Ġspeech": 6787,
      "aptist": 6788,
      "Results": 6789,
      "Ġsingers": 6790,
      "Ġleadership": 6791,
      "ancing": 6792,
      "ĠSwitzerland": 6793,
      "ĠJews": 6794,
      "Ġsuggested": 6795,
      "ĠTokyo": 6796,
      "36": 6797,
      "Ġwá»į": 6798,
      "Ġspons": 6799,
      "Ġ1931": 6800,
      "keep": 6801,
      "Ġshowed": 6802,
      "Ġactresses": 6803,
      "o's": 6804,
      "outs": 6805,
      "Ġ1912": 6806,
      "osen": 6807,
      "ĠAlakoso": 6808,
      "ĠSimon": 6809,
      "-seed": 6810,
      "Ġscholar": 6811,
      "Ġsurrounding": 6812,
      "9%": 6813,
      "Ġfelt": 6814,
      "kÃ¹": 6815,
      "ĠpadÃł": 6816,
      "stitutional": 6817,
      "ĠTownship": 6818,
      "Ġpressure": 6819,
      "ĠSpring": 6820,
      "Ġmachine": 6821,
      "First": 6822,
      "bed": 6823,
      "water": 6824,
      "Ġaw": 6825,
      "eder": 6826,
      "alian": 6827,
      "ads": 6828,
      "Ġreports": 6829,
      "ĠGard": 6830,
      ")ĊĠĠ(": 6831,
      "Ġreserv": 6832,
      "Ġeniyan": 6833,
      "ghan": 6834,
      "Ġnewly": 6835,
      "ĠMaryland": 6836,
      "last": 6837,
      "ojÃº": 6838,
      "à¤": 6839,
      "ĠTen": 6840,
      "âĢĵ16": 6841,
      "=6": 6842,
      "iest": 6843,
      "Ġsales": 6844,
      "Ġresident": 6845,
      "ictures": 6846,
      "Ġgranted": 6847,
      "May": 6848,
      "ãģ": 6849,
      "Ġdia": 6850,
      "Ġmut": 6851,
      "ĠWat": 6852,
      "ĠKitt": 6853,
      "Ġvocal": 6854,
      "44": 6855,
      "bro": 6856,
      "lades": 6857,
      "gbá»įÌĢn": 6858,
      "formed": 6859,
      "ĠShort": 6860,
      "Ġsecondary": 6861,
      "ttp": 6862,
      "Ġpresidential": 6863,
      "And": 6864,
      "zh": 6865,
      "ĠbÃł": 6866,
      "ĠCape": 6867,
      "ĠFa": 6868,
      "Ġimage": 6869,
      "Ġidentified": 6870,
      "Ġserious": 6871,
      "Co": 6872,
      "LC": 6873,
      "Ġhundred": 6874,
      "Ġforest": 6875,
      "Ġcancer": 6876,
      "Ġhousing": 6877,
      "lad": 6878,
      "Ġscoring": 6879,
      "ĠWinn": 6880,
      "Ġmeasure": 6881,
      "Ġsan": 6882,
      "Ġfell": 6883,
      "Ġcart": 6884,
      "ÃŃa": 6885,
      "Char": 6886,
      "Ġ1900": 6887,
      "Ġstre": 6888,
      "Par": 6889,
      "bs": 6890,
      "Ġfr": 6891,
      "otic": 6892,
      "Ġreceive": 6893,
      "Ġexperiment": 6894,
      "8%": 6895,
      "ĠSon": 6896,
      "ilation": 6897,
      "Ġlosing": 6898,
      "amer": 6899,
      "Ġdistinct": 6900,
      "Ġencou": 6901,
      "1st": 6902,
      "uv": 6903,
      "Ġcreation": 6904,
      "ttp://": 6905,
      "SA": 6906,
      "owe": 6907,
      "ĠPhilip": 6908,
      "Ġsurname": 6909,
      "onom": 6910,
      "Ġgreater": 6911,
      "Ġec": 6912,
      "Ġloan": 6913,
      "ĠMelbourne": 6914,
      "www": 6915,
      "Ġtarget": 6916,
      "Ġcarri": 6917,
      "ĠMilitary": 6918,
      "ĠFree": 6919,
      "ussian": 6920,
      "ĠmÃ¬ÃŃ": 6921,
      "uration": 6922,
      "place": 6923,
      "Ġrecognized": 6924,
      "báº¹ÌĢ": 6925,
      "oming": 6926,
      "ĠKhan": 6927,
      "Ġportray": 6928,
      "miss": 6929,
      "outheast": 6930,
      "Ġappar": 6931,
      "disambiguation": 6932,
      "ĠJane": 6933,
      "ugal": 6934,
      "ĠAlso": 6935,
      "Ġabandon": 6936,
      "Ġinvas": 6937,
      "Ġstrugg": 6938,
      "chers": 6939,
      "iwe": 6940,
      "ĠIowa": 6941,
      "ulti": 6942,
      "Ġstarring": 6943,
      "Sportspeople": 6944,
      "cow": 6945,
      "gg": 6946,
      "Ġmales": 6947,
      "Ġnipasáº¹": 6948,
      "aints": 6949,
      "ouses": 6950,
      "Ġmodels": 6951,
      "ĠLemmon": 6952,
      "Rail": 6953,
      "Ġstorm": 6954,
      "Ġjourn": 6955,
      "ĠArizona": 6956,
      "pen": 6957,
      "Ġburn": 6958,
      "Ġlat": 6959,
      "Ġdefend": 6960,
      "-16": 6961,
      "mers": 6962,
      "Ġce": 6963,
      "ĠGil": 6964,
      "Ġapplied": 6965,
      "torÃŃ": 6966,
      "kes": 6967,
      "rations": 6968,
      "ĠTit": 6969,
      "ĠRang": 6970,
      "ĠStock": 6971,
      "ĠArk": 6972,
      "Ġmetres": 6973,
      ":00": 6974,
      "ui": 6975,
      "esin": 6976,
      "Ġpartn": 6977,
      "Ġclaims": 6978,
      "gÃ©": 6979,
      "ĠOak": 6980,
      "Ġ1925": 6981,
      "Ġburied": 6982,
      "osophy": 6983,
      "Bas": 6984,
      "ĠRound": 6985,
      "ĠBat": 6986,
      "ĠPier": 6987,
      "cha": 6988,
      "ayan": 6989,
      "Ġkept": 6990,
      "Ġjazz": 6991,
      "Ġnotes": 6992,
      "anning": 6993,
      "uko": 6994,
      "Ġtrue": 6995,
      "ulate": 6996,
      "ĠHeart": 6997,
      ".ĠĠ": 6998,
      "Ġteaching": 6999,
      "1988": 7000,
      "Ġversions": 7001,
      "ĠLincoln": 7002,
      "Ġcoin": 7003,
      "ĠRa": 7004,
      "1993": 7005,
      "Ġindustrial": 7006,
      "Ġcannot": 7007,
      "iny": 7008,
      "ĠIl": 7009,
      "ĠNap": 7010,
      "claim": 7011,
      "Ġ34": 7012,
      "mouth": 7013,
      "ĠGram": 7014,
      "ĠAlbum": 7015,
      "ublin": 7016,
      "Ġinclude:": 7017,
      "Ġsituated": 7018,
      "ĠTar": 7019,
      "Ã¡s": 7020,
      "Ġsuppl": 7021,
      "Ġadvanced": 7022,
      "Hon": 7023,
      "dÃ³": 7024,
      "zi": 7025,
      "ĠUt": 7026,
      "ĠÃ¬tÃłn": 7027,
      "ĠAli": 7028,
      "Ġmedian": 7029,
      "western": 7030,
      "oslav": 7031,
      "Ġspring": 7032,
      "ructure": 7033,
      "ÃłÃłyÃ¨": 7034,
      "Ġtalk": 7035,
      "ĠSix": 7036,
      "ĠOgun": 7037,
      "Ġexam": 7038,
      "oster": 7039,
      "Ġformerly": 7040,
      "ĠArgentina": 7041,
      "ĠOrganization": 7042,
      "kÃŃ": 7043,
      "Ġ\"E": 7044,
      "viation": 7045,
      "amilton": 7046,
      "Ġformation": 7047,
      "ĠForces": 7048,
      "Ġarrested": 7049,
      "Notable": 7050,
      "Ġsoci": 7051,
      "ĠTurkish": 7052,
      "Ġscheduled": 7053,
      "Ġx": 7054,
      "Ġwall": 7055,
      "Ġclasses": 7056,
      "Ġmarked": 7057,
      "ĠSamuel": 7058,
      "ĠmÃ¬ÃŃrÃłn": 7059,
      "Ġhall": 7060,
      "Ġstore": 7061,
      "Ġadapt": 7062,
      "ĠPlan": 7063,
      "OS": 7064,
      "dá»įÌĢ": 7065,
      "ĠalÃłÃłyÃ¨": 7066,
      "Ġpremier": 7067,
      "32": 7068,
      "ĠBarn": 7069,
      "Ġearth": 7070,
      "ĠGi": 7071,
      "áº¹ÌĢáº¹Ìģ": 7072,
      "Ġregions": 7073,
      "Ġheadquarters": 7074,
      "Ġcrim": 7075,
      "31": 7076,
      "62": 7077,
      "bÃ¬nrin": 7078,
      "Ġmiles": 7079,
      "ĠÃłgbÃł": 7080,
      "ĠMountain": 7081,
      "gáº¹": 7082,
      "pri": 7083,
      "Ġattacks": 7084,
      "lections": 7085,
      "which": 7086,
      "sÃł": 7087,
      "Ġaim": 7088,
      "ĠSud": 7089,
      "cted": 7090,
      "ĠNich": 7091,
      "58": 7092,
      "Dav": 7093,
      "ĠOá¹£Ã¹": 7094,
      "Ġtrains": 7095,
      "Ð¾Ð": 7096,
      "ĠFame": 7097,
      "Ġcommander": 7098,
      "oths": 7099,
      "Ġdesignated": 7100,
      "ĠHoly": 7101,
      "lif": 7102,
      "ĠHo": 7103,
      "Ġtraffic": 7104,
      "ographer": 7105,
      "02": 7106,
      "ĠHun": 7107,
      "utt": 7108,
      "inea": 7109,
      "Ġcampus": 7110,
      "ĠSteve": 7111,
      "ateur": 7112,
      "Ġshop": 7113,
      "Ġlawyer": 7114,
      "Ġ1924": 7115,
      "Ġprotection": 7116,
      "Ġfigures": 7117,
      "Desc": 7118,
      "atus": 7119,
      "itter": 7120,
      "ĠBon": 7121,
      "ictional": 7122,
      "ĠSpacewatch": 7123,
      "ĠTurn": 7124,
      "ĠHor": 7125,
      "oviÄĩ": 7126,
      "Ġrecently": 7127,
      "38": 7128,
      "42": 7129,
      "gers": 7130,
      "Ġpá»įÌĢ": 7131,
      "ĠCall": 7132,
      "rah": 7133,
      "Ġapproved": 7134,
      "Ġbgcolor=\"": 7135,
      "ĠfÃŃÃ¬mÃ¹": 7136,
      "ĠSunday": 7137,
      "Des": 7138,
      "One": 7139,
      "joy": 7140,
      "ĠÎ": 7141,
      "Ġpaid": 7142,
      "ĠNY": 7143,
      "Ġpropos": 7144,
      "Ġyards": 7145,
      "Ġroyal": 7146,
      "Ġclassical": 7147,
      "Ġstrike": 7148,
      "ĠDiego": 7149,
      "gest": 7150,
      "uh": 7151,
      "áº¹Ìģká»įÌĢá»įÌģ": 7152,
      "hedral": 7153,
      "Ġwins": 7154,
      "Ġgives": 7155,
      "ĠLive": 7156,
      "Ġspot": 7157,
      "Ġtried": 7158,
      "ĠÃ©": 7159,
      "Ġreject": 7160,
      "uther": 7161,
      "Ġcritics": 7162,
      "Ġlaunch": 7163,
      "Fran": 7164,
      "ĠGab": 7165,
      "Ġdoctor": 7166,
      "Ġyounger": 7167,
      "wen": 7168,
      "ĠPass": 7169,
      "ordin": 7170,
      "Ġallows": 7171,
      "Ġglobal": 7172,
      "Ġinspired": 7173,
      "ĠQueensland": 7174,
      "DA": 7175,
      "igration": 7176,
      "Ġ1916": 7177,
      "istry": 7178,
      "rait": 7179,
      "ĠDouglas": 7180,
      "Dist": 7181,
      "ĠVice": 7182,
      "ĠAlÃ¡": 7183,
      "ĠAlbert": 7184,
      "1985": 7185,
      "Ġgrowing": 7186,
      "olas": 7187,
      "Ġ(),": 7188,
      "iversary": 7189,
      "&B": 7190,
      "mph": 7191,
      "Ġwant": 7192,
      "uma": 7193,
      "ĠKy": 7194,
      "Ġvice": 7195,
      "Ġcrime": 7196,
      "Ġcontinues": 7197,
      "Ġrefused": 7198,
      "ĠOregon": 7199,
      "ĠTelevision": 7200,
      "Ġreturning": 7201,
      "Ġfeed": 7202,
      "Ġfleet": 7203,
      "6%": 7204,
      "Ġtwice": 7205,
      "PS": 7206,
      "Ġpet": 7207,
      "Ġdial": 7208,
      "ĠHas": 7209,
      "ĠFe": 7210,
      "Ġheav": 7211,
      "ĠServices": 7212,
      "ĠSurvey": 7213,
      "Ġdamage": 7214,
      "á»įk": 7215,
      "efef": 7216,
      "Ġinjury": 7217,
      "ĠBulg": 7218,
      "3%": 7219,
      "box": 7220,
      "ĠSri": 7221,
      "ĠMand": 7222,
      "Ġseats": 7223,
      "Ġá¹£iá¹£áº¹Ìģ": 7224,
      "ĠBeach": 7225,
      "ĠNorwegian": 7226,
      "sÃ¨": 7227,
      "Ġfully": 7228,
      "1986": 7229,
      "ĠImperial": 7230,
      "Ġláº¹ÌģyÃ¬n": 7231,
      "urric": 7232,
      "Ġrecip": 7233,
      "ĠAnother": 7234,
      "Ġá»įÌĢrá»įÌĢ": 7235,
      "Ġhistorian": 7236,
      "ĠOklahoma": 7237,
      "ĠLor": 7238,
      "ĠAbb": 7239,
      "1987": 7240,
      "ĠMagazine": 7241,
      "ĠCommonwealth": 7242,
      "-ch": 7243,
      "rÃ¬n": 7244,
      "Ġdim": 7245,
      "ods": 7246,
      "Ġ44": 7247,
      "Ġoppos": 7248,
      "Ġopposition": 7249,
      "Ġtouchdown": 7250,
      "des": 7251,
      "Ġbought": 7252,
      "ĠAgba": 7253,
      "ĠEach": 7254,
      "ocese": 7255,
      "Ġpartner": 7256,
      "Ġdefined": 7257,
      "Ġmusician": 7258,
      "Ġláº¹": 7259,
      "Ġsixth": 7260,
      "dam": 7261,
      "Â°": 7262,
      "Ġtower": 7263,
      "ĠTrain": 7264,
      "ĠAlber": 7265,
      "ĠShar": 7266,
      "Ġactually": 7267,
      "Ġstatistics": 7268,
      "Ġauthority": 7269,
      "ĠBillboard": 7270,
      "-10": 7271,
      "mÃº": 7272,
      "pur": 7273,
      "Ġmap": 7274,
      "awn": 7275,
      "Ġsupply": 7276,
      "Ġslight": 7277,
      "Ġanimals": 7278,
      "Ġnarrow": 7279,
      "Australian": 7280,
      "ĠWalter": 7281,
      "ĠMoscow": 7282,
      "Ġtaught": 7283,
      "ĠReb": 7284,
      "ĠMas": 7285,
      "ĠInternet": 7286,
      "ottom": 7287,
      "Ġprincipal": 7288,
      "Qu": 7289,
      "ĠChristmas": 7290,
      "Ġvillages": 7291,
      "Ġmanagers": 7292,
      "Ġvisit": 7293,
      "Ġtwenty": 7294,
      "How": 7295,
      "lets": 7296,
      "ĠÃģfrÃŃkÃł": 7297,
      "ĠsÃ¡": 7298,
      "Ġthings": 7299,
      "Ġaspect": 7300,
      "Ġproceed": 7301,
      "portation": 7302,
      "Ġoffers": 7303,
      "alia": 7304,
      "1990": 7305,
      "Ġexpansion": 7306,
      "room": 7307,
      "elve": 7308,
      "ĠBah": 7309,
      "ĠOm": 7310,
      "ĠAbu": 7311,
      "Ġcalc": 7312,
      "ĠJacob": 7313,
      "rell": 7314,
      "ing\"": 7315,
      "ĠSum": 7316,
      "Ġobtained": 7317,
      "Ġexisting": 7318,
      "Ġconflict": 7319,
      "á»įÌģá»įÌĢlÃ¹": 7320,
      "come": 7321,
      "ĠHans": 7322,
      "abad": 7323,
      "ĠReal": 7324,
      "Ġpublication": 7325,
      "Ġtemple": 7326,
      "ĠModern": 7327,
      "also": 7328,
      "ndÃŃn": 7329,
      "olished": 7330,
      "rav": 7331,
      "Ġrisk": 7332,
      "ĠMargar": 7333,
      "Ġbroke": 7334,
      "Ġdiplom": 7335,
      "ĠAntonio": 7336,
      "05": 7337,
      "No": 7338,
      "Ġtennis": 7339,
      "ionally": 7340,
      "Ġtheme": 7341,
      "ĠLtd": 7342,
      "Ġaired": 7343,
      "Ġspect": 7344,
      "Ġlake": 7345,
      "ĠDig": 7346,
      "ĠFinn": 7347,
      "ogy": 7348,
      "Ġcontain": 7349,
      "Ġentry": 7350,
      "Ġpatients": 7351,
      "rator": 7352,
      "ĠDeb": 7353,
      "Ġplayoff": 7354,
      "Ġallowing": 7355,
      "Indian": 7356,
      "fit": 7357,
      "ĠPap": 7358,
      "ĠÃ¬p": 7359,
      "Ġsimply": 7360,
      "Ġhands": 7361,
      "Ġsucceeded": 7362,
      "Ã¥": 7363,
      "Ġmel": 7364,
      "Ġhy": 7365,
      "ĠOá¹£u": 7366,
      "Ġmid-": 7367,
      "07": 7368,
      "Following": 7369,
      "Ġalone": 7370,
      "oye": 7371,
      "weet": 7372,
      "Ġracing": 7373,
      "Ġrapid": 7374,
      "ĠKansas": 7375,
      "ureau": 7376,
      "Ġadvert": 7377,
      "ĠColomb": 7378,
      "ĠDenmark": 7379,
      "ĠRoute": 7380,
      "IT": 7381,
      "Ġwild": 7382,
      "Ġinaug": 7383,
      "anny": 7384,
      "Ġpolic": 7385,
      "Ġoldest": 7386,
      "Ġconnected": 7387,
      "Ġalternative": 7388,
      "-val": 7389,
      "Ġbill": 7390,
      "amo": 7391,
      "ĠPed": 7392,
      "ĠPope": 7393,
      "ĠGall": 7394,
      "Ġ\"m": 7395,
      "ĠVo": 7396,
      "Reception": 7397,
      "ples": 7398,
      "Ġprec": 7399,
      "Ġactions": 7400,
      "Ġban": 7401,
      "ega": 7402,
      "ĠConnect": 7403,
      "VD": 7404,
      "Ġpand": 7405,
      "Ġarms": 7406,
      "engers": 7407,
      "Ġknowledge": 7408,
      "miral": 7409,
      "ĠAdministration": 7410,
      "PA": 7411,
      "eto": 7412,
      "ĠHend": 7413,
      "ĠNaval": 7414,
      "Ġdisestab": 7415,
      "archived": 7416,
      "Ġfacility": 7417,
      "Ġfer": 7418,
      "ĠTs": 7419,
      "Ġlob": 7420,
      "antic": 7421,
      "ĠRoberts": 7422,
      "Ġcondition": 7423,
      "ĠIslamic": 7424,
      "Disc": 7425,
      "Ġdraft": 7426,
      "ĠAuthor": 7427,
      "Ġyellow": 7428,
      "Ġ5th": 7429,
      "everal": 7430,
      "ĠDesign": 7431,
      "68": 7432,
      "Ġkil": 7433,
      "Rec": 7434,
      "Ġroll": 7435,
      "aza": 7436,
      "hammad": 7437,
      "ojo": 7438,
      "organ": 7439,
      "icut": 7440,
      "stic": 7441,
      "ĠStory": 7442,
      "ĠIndependent": 7443,
      "Ġrelatively": 7444,
      "Ġlaws": 7445,
      "ĠPrix": 7446,
      "ĠLabour": 7447,
      "bÃº": 7448,
      "olt": 7449,
      "ĠOrÃŃ": 7450,
      "Ġmethods": 7451,
      "ĠÃ¬bÃŃláº¹ÌĢ": 7452,
      "jÃ³": 7453,
      "public": 7454,
      "aji": 7455,
      "ĠAfghan": 7456,
      "Ġdriver": 7457,
      "Ġcorpor": 7458,
      "rence": 7459,
      "Ġ(,": 7460,
      "ĠolÃ³rin": 7461,
      "Ġscientific": 7462,
      "GBT": 7463,
      "37": 7464,
      "Ġsquare": 7465,
      "asiti": 7466,
      "ĠTur": 7467,
      "oka": 7468,
      "19th-century": 7469,
      "cluding": 7470,
      "1984": 7471,
      "time": 7472,
      "sÃŃláº¹ÌĢ": 7473,
      "Ġshortly": 7474,
      "Ġrepresentative": 7475,
      "enez": 7476,
      "Ġfans": 7477,
      "ĠNag": 7478,
      "ĠNCAA": 7479,
      "ĠEk": 7480,
      "ordon": 7481,
      "Ġachieved": 7482,
      "Ġbud": 7483,
      "ĠHockey": 7484,
      "âĢĵ197": 7485,
      "phas": 7486,
      "Ġacts": 7487,
      "1991": 7488,
      "Christ": 7489,
      "Ġ1927": 7490,
      "jáº¹ÌĢ": 7491,
      "usal": 7492,
      "ĠSecurity": 7493,
      "Ġsportspeople": 7494,
      "Life": 7495,
      "Ġfair": 7496,
      "Ġ\"b": 7497,
      "aph": 7498,
      "ogs": 7499,
      "Ġsuggest": 7500,
      "Ġcompletely": 7501,
      "Ġfreedom": 7502,
      "Ġbik": 7503,
      "iley": 7504,
      "ĠDisney": 7505,
      "ĠDanish": 7506,
      "achers": 7507,
      ".ĊĠ": 7508,
      "Ġcompetitions": 7509,
      "ĠMiller": 7510,
      "4%": 7511,
      "fun": 7512,
      "mes": 7513,
      "ĠSin": 7514,
      "ĠAw": 7515,
      "ĠDa": 7516,
      "antasy": 7517,
      "ĠYouth": 7518,
      "ailand": 7519,
      "risis": 7520,
      "Ġfocused": 7521,
      "Ġnegoti": 7522,
      "ĠBelgium": 7523,
      "Ġcompon": 7524,
      "Ġrepresenting": 7525,
      "ĠVillage": 7526,
      "ãĥ": 7527,
      "ĠLiter": 7528,
      "Ġ1950s": 7529,
      "Ġfounding": 7530,
      "ĠAbout": 7531,
      "tÃłkÃ¬": 7532,
      "Ã³mÃ¬nÃł": 7533,
      "-related": 7534,
      "ĠFal": 7535,
      "anton": 7536,
      "Ġmayor": 7537,
      "ĠAllen": 7538,
      "Ġdomestic": 7539,
      "Ġtáº¹Ìģláº¹ÌĢ": 7540,
      "lan": 7541,
      "Ġwen": 7542,
      "Ġ3166": 7543,
      "Ġagency": 7544,
      "Ġcoaches": 7545,
      "Ġlá»įÌģwá»įÌģ": 7546,
      "ĠBuilding": 7547,
      "ista": 7548,
      "Education": 7549,
      "yi": 7550,
      "ĠLank": 7551,
      "Ġstadium": 7552,
      "ologists": 7553,
      "Ġ1926": 7554,
      "Ġcandidates": 7555,
      "Ġcategory": 7556,
      "á»įkasi": 7557,
      "Military": 7558,
      "RC": 7559,
      "iments": 7560,
      "ĠFight": 7561,
      "Ġpromotion": 7562,
      "ĠLimited": 7563,
      "etroit": 7564,
      "nold": 7565,
      "Ġdaily": 7566,
      "usu": 7567,
      "Ġhero": 7568,
      "ĠInn": 7569,
      "Ġiye": 7570,
      "Ġpowers": 7571,
      "Ġhorse": 7572,
      "opter": 7573,
      "ĠKat": 7574,
      "ĠKey": 7575,
      "ĠStone": 7576,
      "Ċ|ĠĊ|": 7577,
      "Ġá¹£ÃŃ": 7578,
      "Ġslow": 7579,
      "Ġrespond": 7580,
      "Ġethnic": 7581,
      "agen": 7582,
      "umo": 7583,
      "ordan": 7584,
      "icture": 7585,
      "Ġrefuge": 7586,
      "ĠSenior": 7587,
      "ĠBanglades": 7588,
      "Build": 7589,
      "inth": 7590,
      "Ġcert": 7591,
      "Ġha": 7592,
      "andy": 7593,
      "iller": 7594,
      "dÃºgbÃ²": 7595,
      "inus": 7596,
      "orun": 7597,
      "Ġsamp": 7598,
      "ĠWorks": 7599,
      "ĠAnne": 7600,
      "ĠMalaysia": 7601,
      "Ġlyrics": 7602,
      "las": 7603,
      "Ġpesin": 7604,
      "ĠTun": 7605,
      "ĠHamilton": 7606,
      "ayer": 7607,
      "Ġbeaut": 7608,
      "Ġvolunte": 7609,
      "Ġsettled": 7610,
      "die": 7611,
      "gency": 7612,
      "pool": 7613,
      "Ðº": 7614,
      "agan": 7615,
      "ĠÃłgbÃ©": 7616,
      "Ġconsisted": 7617,
      "ĠipÃ²": 7618,
      "ĠInfantry": 7619,
      "-11": 7620,
      "Spec": 7621,
      "Ġsense": 7622,
      "Ġpelu": 7623,
      "Ġbow": 7624,
      "Ġdensity": 7625,
      "Ġunable": 7626,
      "ĠWhit": 7627,
      "67": 7628,
      "Ġri": 7629,
      "acent": 7630,
      "Ġgoes": 7631,
      "Ġsurvey": 7632,
      "Ġcode": 7633,
      "ials": 7634,
      "Ġchurches": 7635,
      "Ġentitled": 7636,
      "ĠDoctor": 7637,
      "=n": 7638,
      "Ġmis": 7639,
      "ĠBan": 7640,
      "ĠPoint": 7641,
      "ĠR&B": 7642,
      "Ġprotest": 7643,
      "Ġsafety": 7644,
      "lÃ¬": 7645,
      "onna": 7646,
      "Ġnob": 7647,
      "ĠRoll": 7648,
      "ĠUg": 7649,
      "Ġmatter": 7650,
      "ĠTerrit": 7651,
      "ĠRD1-score0": 7652,
      "ilip": 7653,
      "ĠJazz": 7654,
      "ĠYug": 7655,
      "Ġscale": 7656,
      "Exp": 7657,
      "Ġmeant": 7658,
      "ĠRomania": 7659,
      "zen": 7660,
      "Ġsons": 7661,
      "Ġlibrary": 7662,
      "Ġbey": 7663,
      "ĠKa": 7664,
      "Ġusers": 7665,
      "Ġending": 7666,
      "Ġáº¹gbáº¹": 7667,
      "ĠÂł": 7668,
      "apá»įÌĢ": 7669,
      "sex": 7670,
      "Ġakt": 7671,
      "Description": 7672,
      "died": 7673,
      "Ġharm": 7674,
      "uru": 7675,
      "Ġexclus": 7676,
      "Ġlect": 7677,
      "Ġlocations": 7678,
      "Ġ64": 7679,
      "ifications": 7680,
      "ĠPhill": 7681,
      "Ġfighting": 7682,
      "ĠISO": 7683,
      "-align": 7684,
      "Ġinternal": 7685,
      "icide": 7686,
      "Ġvent": 7687,
      "evin": 7688,
      "Ġopera": 7689,
      "51": 7690,
      "Ġsays": 7691,
      "leep": 7692,
      "Ġmáº¹": 7693,
      "ĠChampions": 7694,
      "Ġnecessary": 7695,
      "-and": 7696,
      "Ġ{{": 7697,
      "Ġlett": 7698,
      "ryst": 7699,
      "tsburgh": 7700,
      "ĠLiberal": 7701,
      "Ġcustom": 7702,
      "on's": 7703,
      "Ġfuel": 7704,
      "Ġ\"J": 7705,
      "Ġ\"p": 7706,
      "áº¹ÌĢká»įÌģ": 7707,
      "ĠChannel": 7708,
      "ĠHarry": 7709,
      "Ġholding": 7710,
      "ĠWell": 7711,
      "uccess": 7712,
      "urrent": 7713,
      "ĠnÃŃnu": 7714,
      "Ġportion": 7715,
      "Ġqualified": 7716,
      "ĠBrazilian": 7717,
      "61": 7718,
      "Ġ1911": 7719,
      "ĠFund": 7720,
      "ĠKan": 7721,
      "ocation": 7722,
      "Ġ\"h": 7723,
      "orders": 7724,
      "rif": 7725,
      "riev": 7726,
      "aux": 7727,
      "Ġguest": 7728,
      "Ġpattern": 7729,
      "Ġlot": 7730,
      "ĠRun": 7731,
      "Ġseem": 7732,
      "ĠPhys": 7733,
      "Ġcombat": 7734,
      "Ġcreating": 7735,
      "Ġpandemic": 7736,
      "-align:": 7737,
      "nor": 7738,
      "nia": 7739,
      "oly": 7740,
      "ĠStet": 7741,
      "láº¹ÌĢ-Ã¨dÃ¨": 7742,
      "ĠDeputy": 7743,
      "Plot": 7744,
      "Ġpainter": 7745,
      "secutive": 7746,
      "ĠAT": 7747,
      "ĠABC": 7748,
      "irty": 7749,
      "Ġreference": 7750,
      "ĠNar": 7751,
      "ĠOg": 7752,
      "ĠPortugal": 7753,
      "Ġvehicles": 7754,
      "Vill": 7755,
      "rene": 7756,
      "Ġvisited": 7757,
      "oes": 7758,
      "Ġsoccer": 7759,
      "Ġdie": 7760,
      "Ġmom": 7761,
      "ĠNative": 7762,
      "ifically": 7763,
      "III": 7764,
      "inguished": 7765,
      "Ġbeyond": 7766,
      "-áº¹": 7767,
      "Flor": 7768,
      "ĠLas": 7769,
      "Ġcho": 7770,
      "Ġprepar": 7771,
      "ĠSwiss": 7772,
      "Ġmaterials": 7773,
      "ĠBald": 7774,
      "ĠShah": 7775,
      "ĠSilver": 7776,
      "Ġpermanent": 7777,
      "cell": 7778,
      "ĠnÃ¬": 7779,
      "Ġresources": 7780,
      "Ġconsult": 7781,
      "1983": 7782,
      "-like": 7783,
      "cia": 7784,
      "Ġfaced": 7785,
      "ĠMarine": 7786,
      "Ġreceiving": 7787,
      "Ġakoko": 7788,
      "rete": 7789,
      "ĠDor": 7790,
      "agues": 7791,
      "-yard": 7792,
      "59": 7793,
      "MP": 7794,
      "Na": 7795,
      "Rober": 7796,
      "Since": 7797,
      "present": 7798,
      "wich": 7799,
      "Ġwear": 7800,
      "ĠSem": 7801,
      "ĠHart": 7802,
      "rip": 7803,
      "ĠProt": 7804,
      "cycl": 7805,
      "ĠgbajÃºmá»įÌĢ": 7806,
      "dÃł": 7807,
      "Ġtells": 7808,
      "Ġfranch": 7809,
      "ĠRose": 7810,
      "Ġunderst": 7811,
      "Ġá»įÌĢkan": 7812,
      "ĠBuddh": 7813,
      "Ġonto": 7814,
      "ĠFun": 7815,
      "Ġacid": 7816,
      "Third": 7817,
      "Ġoccurs": 7818,
      "Ġ1909": 7819,
      "ĠOfficer": 7820,
      "Public": 7821,
      "Ġbul": 7822,
      "ĠNick": 7823,
      "ressed": 7824,
      "Ġregiment": 7825,
      "Ġaccident": 7826,
      "ĠExecutive": 7827,
      "ĠMak": 7828,
      "ĠRoy": 7829,
      "ĠInformation": 7830,
      "archived=n": 7831,
      "ĠMaj": 7832,
      "Ġheight": 7833,
      "Ġ||Ġ.": 7834,
      "1980": 7835,
      "Ġholds": 7836,
      "ĠKentucky": 7837,
      "ĠOttoman": 7838,
      "ĠgÃŃga": 7839,
      "ĠEric": 7840,
      "ogo": 7841,
      "Ġclin": 7842,
      "ĠAnna": 7843,
      "ierra": 7844,
      "Ġdirectors": 7845,
      "Comp": 7846,
      "Ġcommissioned": 7847,
      "ters": 7848,
      "ĠLith": 7849,
      "osm": 7850,
      "Ġspok": 7851,
      "Ġsomething": 7852,
      "ĠArmenian": 7853,
      "ĠMargaret": 7854,
      "Ġtheor": 7855,
      "ĠGian": 7856,
      "ĠKam": 7857,
      "Ġconvers": 7858,
      "oda": 7859,
      "ĠTrib": 7860,
      "Ġresigned": 7861,
      "Ġ1908": 7862,
      "ĠHotel": 7863,
      "Ġceremony": 7864,
      "ĠCru": 7865,
      "ctors": 7866,
      "ĠPel": 7867,
      "Ġ1910": 7868,
      "ardo": 7869,
      "Ġchosen": 7870,
      "á»įÌĢrá»įÌĢ": 7871,
      "Ġ400": 7872,
      "Ġopposed": 7873,
      "1981": 7874,
      "Ġpowerful": 7875,
      "ĠpÃłtÃłkÃ¬": 7876,
      "47": 7877,
      "ĠFr": 7878,
      "ĠFarm": 7879,
      "Ġdefense": 7880,
      "Ġeffective": 7881,
      "Ġidentity": 7882,
      "Ġschol": 7883,
      "eni": 7884,
      "antly": 7885,
      "Ġstraight": 7886,
      "Ġ1:": 7887,
      "ĠBrand": 7888,
      "ĠÃłÃł": 7889,
      "Ġgbe": 7890,
      "Ġreligion": 7891,
      "Ġexhibition": 7892,
      "Academ": 7893,
      "ĠBattalion": 7894,
      "align=center": 7895,
      "Ġtry": 7896,
      "ĠBeng": 7897,
      "1982": 7898,
      "Ġeconomy": 7899,
      "ĠLegislative": 7900,
      "ER": 7901,
      "ĠCost": 7902,
      "ĠBeat": 7903,
      "ĠIr": 7904,
      "ikh": 7905,
      "Ġlands": 7906,
      "Ġsubsequent": 7907,
      "ĠChildren": 7908,
      "Ġclimate": 7909,
      "Ġlocomot": 7910,
      "Ġoppon": 7911,
      "ships": 7912,
      "Ġtrust": 7913,
      "Ġretirement": 7914,
      "Ġdynasty": 7915,
      "oles": 7916,
      "adow": 7917,
      "ĠHig": 7918,
      "ĠkÃ¡": 7919,
      "Ġaged": 7920,
      "Ġenemy": 7921,
      "Ġ1905": 7922,
      "Ġadvance": 7923,
      "Ġskul": 7924,
      "Ġoccupied": 7925,
      "Ġta": 7926,
      "ĠSound": 7927,
      "Ġeye": 7928,
      "anges": 7929,
      "obe": 7930,
      "iami": 7931,
      "Ġinters": 7932,
      "Ġbrown": 7933,
      "ĠHarvard": 7934,
      "ĠCEO": 7935,
      "Ġ\"K": 7936,
      "Commun": 7937,
      "Ġaudience": 7938,
      "West": 7939,
      "burn": 7940,
      "ĠBou": 7941,
      "ĠDaily": 7942,
      "okan": 7943,
      "under": 7944,
      "Ġunique": 7945,
      "Ġsecretary": 7946,
      "ridges": 7947,
      "Ġsimple": 7948,
      "ĠilÃ©-Ã¬": 7949,
      "ĠBerg": 7950,
      "iful": 7951,
      "Reg": 7952,
      "Ġpiece": 7953,
      "ĠYunif": 7954,
      "39": 7955,
      "âĢĵ15": 7956,
      "oured": 7957,
      "urope": 7958,
      "ĠDelta": 7959,
      "Ġhydro": 7960,
      "Ġcontrast": 7961,
      "Ġsetting": 7962,
      "ĠMuhammad": 7963,
      "06": 7964,
      "Niger": 7965,
      "dÃŃn": 7966,
      "ĠBush": 7967,
      "Ġshared": 7968,
      "ensions": 7969,
      "Ġcontaining": 7970,
      "ĠReport": 7971,
      "ĠEmperor": 7972,
      "Ġapplication": 7973,
      "Ġkeyboard": 7974,
      "ĠUkrainian": 7975,
      "Ġconverted": 7976,
      "Ġmaximum": 7977,
      "-on": 7978,
      "gment": 7979,
      "icians": 7980,
      "ĠAud": 7981,
      "ĠDak": 7982,
      "Ġconsecutive": 7983,
      "ĠapÃ¡": 7984,
      "Ġfrequently": 7985,
      "56": 7986,
      "Ġstock": 7987,
      "Ġfields": 7988,
      "ĠilÃ©-iá¹£áº¹Ìģ": 7989,
      "Ġchemical": 7990,
      "Ġá»įÌĢpá»įÌĢlá»įpá»įÌĢ": 7991,
      "SS": 7992,
      "rect": 7993,
      "ĠTrin": 7994,
      "Ġactivist": 7995,
      "ĠJosÃ©": 7996,
      "mingham": 7997,
      "Ġigba": 7998,
      "Ġregarding": 7999,
      "-value": 8000,
      "Wá»įÌģn": 8001,
      "Ġmind": 8002,
      "áº¹gáº¹": 8003,
      "ĠRid": 8004,
      "ĠRey": 8005,
      "umes": 8006,
      "gbáº¹Ìģ": 8007,
      "ĠÃ¬gbÃ©": 8008,
      "Ġresear": 8009,
      "ĠThailand": 8010,
      "Ġindependence": 8011,
      "ĠJuan": 8012,
      "Ġchildren's": 8013,
      "ĠFIFA": 8014,
      "Ale": 8015,
      "Mich": 8016,
      "ĠAge": 8017,
      "ĠÃī": 8018,
      "otte": 8019,
      "fecture": 8020,
      "ĠHonor": 8021,
      "rÃ¹": 8022,
      "ĠRegional": 8023,
      "ĠHeritage": 8024,
      "Ġcarry": 8025,
      "Ġrequest": 8026,
      "Ġdetect": 8027,
      "ĠTaiwan": 8028,
      "Ġargued": 8029,
      "Ġ1913": 8030,
      "Ġsets": 8031,
      "ĠĠĠĠĠĠĠĠĠĠĠĠĠĠĠĠ": 8032,
      "ĠAnthony": 8033,
      "-St": 8034,
      "gi": 8035,
      "ĠHu": 8036,
      "ĠDisc": 8037,
      "illing": 8038,
      "ĠnÃŃtorÃŃ": 8039,
      "Ġenjoy": 8040,
      "Ġadvis": 8041,
      "Def": 8042,
      "Mon": 8043,
      "Ġdram": 8044,
      "ĠTel": 8045,
      "ĠBack": 8046,
      "ĠBrian": 8047,
      "ologies": 8048,
      "Ġexpressed": 8049,
      "ĠConnecticut": 8050,
      "Leg": 8051,
      "Top": 8052,
      "YT": 8053,
      "Ġsides": 8054,
      "lease": 8055,
      "Ġmorning": 8056,
      "ĠAD": 8057,
      "ĠAst": 8058,
      "ĠHand": 8059,
      "Ġcompar": 8060,
      "Ġbacking": 8061,
      "Ġappoint": 8062,
      "08": 8063,
      "ho": 8064,
      "alu": 8065,
      "lete": 8066,
      "Ġkar": 8067,
      "ĠKings": 8068,
      "ampton": 8069,
      "Ġwinter": 8070,
      "Ġviolence": 8071,
      "North": 8072,
      "Ġay": 8073,
      "ĠÃ¬t": 8074,
      "Ġijoba": 8075,
      "ĠPalace": 8076,
      "Ġalleged": 8077,
      "Gu": 8078,
      "rome": 8079,
      "Ġá»įba": 8080,
      "olec": 8081,
      "Cont": 8082,
      "lines": 8083,
      "heastern": 8084,
      "Ġcovers": 8085,
      "issance": 8086,
      "veland": 8087,
      "41": 8088,
      "do": 8089,
      "sis": 8090,
      "ĠHug": 8091,
      "Ġvo": 8092,
      "Ġdrive": 8093,
      "Ġvolume": 8094,
      "George": 8095,
      "Ġmerged": 8096,
      "ĠJohann": 8097,
      "Ġtu": 8098,
      "Ġsac": 8099,
      "Ġfáº¹Ìģ": 8100,
      "poses": 8101,
      "erbai": 8102,
      "Club": 8103,
      "Ġexistence": 8104,
      "ĠTemple": 8105,
      "09": 8106,
      "La": 8107,
      "mu": 8108,
      "Ġá¹¢": 8109,
      "Ġfought": 8110,
      "Ġgather": 8111,
      "ĠLast": 8112,
      "Ġstream": 8113,
      "aved": 8114,
      "Ġchampions": 8115,
      "Ġmeji": 8116,
      "Ġsignal": 8117,
      "Expatriate": 8118,
      "RD": 8119,
      "Ġfresh": 8120,
      "ĠTony": 8121,
      "Ġavoid": 8122,
      "Ġkm2": 8123,
      "Ġchalleng": 8124,
      "ĠBrigade": 8125,
      "Ġmulti": 8126,
      "Ġselection": 8127,
      "ĠYour": 8128,
      "Ġá¹£Ã¹gbá»įÌģn": 8129,
      "Ġinstall": 8130,
      "Ġpieces": 8131,
      "key": 8132,
      "onal": 8133,
      "ĠdÃº": 8134,
      "elson": 8135,
      "ĠHom": 8136,
      "osed": 8137,
      "Ġ300": 8138,
      "Ġpursu": 8139,
      "Ġfailure": 8140,
      "ĠPeters": 8141,
      "gbÃ¡yÃ©": 8142,
      "ĠFinland": 8143,
      "Ġancest": 8144,
      "Second": 8145,
      "ĠBud": 8146,
      "ctic": 8147,
      "ĠMarket": 8148,
      "Ġescape": 8149,
      "Ġpaintings": 8150,
      "Ġinvasion": 8151,
      "yers": 8152,
      "ĠNad": 8153,
      "ogen": 8154,
      "Ġdecor": 8155,
      "ĠPatrick": 8156,
      "Ġcopies": 8157,
      "y's": 8158,
      "enh": 8159,
      "aming": 8160,
      "ĠBry": 8161,
      "ĠRab": 8162,
      "ĠDal": 8163,
      "ĠFried": 8164,
      "Ġtrav": 8165,
      "Ġ1906": 8166,
      "ĠThompson": 8167,
      "Ġemployed": 8168,
      "ĠilÃ©-áº¹ÌĢká»įÌģ": 8169,
      "-re": 8170,
      "|Ġ||": 8171,
      "ĠowÃ³": 8172,
      "ĠMit": 8173,
      "ĠBaker": 8174,
      "Ġflood": 8175,
      "Ġendemic": 8176,
      "Ġdefin": 8177,
      "pective": 8178,
      "Ġáº¹ÌĢyÃł": 8179,
      "-17": 8180,
      "Rep": 8181,
      "bes": 8182,
      "iop": 8183,
      "y\"": 8184,
      "ĠCra": 8185,
      "Ġrein": 8186,
      "Ġcharts": 8187,
      "ultan": 8188,
      "ĠRussell": 8189,
      "gressive": 8190,
      "rates": 8191,
      "wise": 8192,
      "Ġtel": 8193,
      "ĠCub": 8194,
      "Ġeto": 8195,
      "Ġnuclear": 8196,
      "ĠArkansas": 8197,
      "uilt": 8198,
      "Ġmarg": 8199,
      "ĠDick": 8200,
      "ĠGb": 8201,
      "Ġsurg": 8202,
      "Ġsupporting": 8203,
      "Ġattempted": 8204,
      "Man": 8205,
      "ĠAle": 8206,
      "eless": 8207,
      "olph": 8208,
      "David": 8209,
      "báº¹Ìģ": 8210,
      "Ġtáº¹ÌĢ": 8211,
      "Ġways": 8212,
      "Ġmáº¹Ìģr": 8213,
      "imore": 8214,
      "ĠWoman": 8215,
      "odox": 8216,
      "ĠAmong": 8217,
      "Ġincident": 8218,
      "ĠExpress": 8219,
      "ĠArtist": 8220,
      "ĠSingh": 8221,
      "Ġplanning": 8222,
      "Ġarrang": 8223,
      "Ġletters": 8224,
      "ĠDall": 8225,
      "Ġcenturies": 8226,
      "ĠGuinea": 8227,
      "urray": 8228,
      "Ġeducational": 8229,
      "iw": 8230,
      "rine": 8231,
      "Ġcrow": 8232,
      "iah": 8233,
      "ewart": 8234,
      "Ġjur": 8235,
      "see": 8236,
      "Ġagent": 8237,
      "uerto": 8238,
      "ĠCemetery": 8239,
      "ĠDublin": 8240,
      "ĠNow": 8241,
      "ĠFem": 8242,
      "ĠVis": 8243,
      "Ġcompris": 8244,
      "Ġfunctions": 8245,
      "Ġinstalled": 8246,
      "Ġwealth": 8247,
      "Ġband's": 8248,
      "Ġderived": 8249,
      "Ġprofile": 8250,
      "bassador": 8251,
      "ĠAgb": 8252,
      "uka": 8253,
      "Ġestablishment": 8254,
      "Ġpurchase": 8255,
      "ĠFrederick": 8256,
      "eri": 8257,
      "ĠBuck": 8258,
      "istant": 8259,
      "ĠKÃ²": 8260,
      "âĢĵ10": 8261,
      "ĠAdv": 8262,
      "ĠConstitution": 8263,
      "Ġemphas": 8264,
      "Ġrestaur": 8265,
      "Ġdata-s": 8266,
      "wÃ¹": 8267,
      "ĠMeg": 8268,
      "ĠBureau": 8269,
      "ĠNik": 8270,
      "Ġislands": 8271,
      "âĢĵ194": 8272,
      "inder": 8273,
      "1978": 8274,
      "scape": 8275,
      "ãĢ": 8276,
      "inley": 8277,
      "ĠSÃ£o": 8278,
      "Ġflow": 8279,
      "leges": 8280,
      "Arch": 8281,
      "ĠolÃº": 8282,
      "Ġbodies": 8283,
      "ĠHop": 8284,
      "ĠDark": 8285,
      "Ġede": 8286,
      "Ġattempts": 8287,
      "ĠCrown": 8288,
      "Ġultimately": 8289,
      "Ġdata-sort": 8290,
      "Best": 8291,
      "gor": 8292,
      "stream": 8293,
      "igious": 8294,
      "Ġprovision": 8295,
      "ĠAndre": 8296,
      "-value=\"": 8297,
      "Ġdata-sort-value=\"": 8298,
      "Ġreign": 8299,
      "ĠGlobal": 8300,
      "Ġiron": 8301,
      "Ġfunds": 8302,
      "Ġconstituency": 8303,
      "57": 8304,
      "ĠGun": 8305,
      "Ġring": 8306,
      "ĠOba": 8307,
      "Ġwrite": 8308,
      "Ġdeveloping": 8309,
      "ĠAnderson": 8310,
      "Ġattacked": 8311,
      "2nd": 8312,
      "Her": 8313,
      "Ġpun": 8314,
      "ĠSaf": 8315,
      "Ġmand": 8316,
      "ĠCow": 8317,
      "AA": 8318,
      "Car": 8319,
      "iner": 8320,
      "antage": 8321,
      "Ġ6th": 8322,
      "ĠClin": 8323,
      "ĠTechn": 8324,
      "Ġextensive": 8325,
      "Ġkáº¹ta": 8326,
      "Ġlearning": 8327,
      "Ġdropped": 8328,
      "Ġsought": 8329,
      "ĠThird": 8330,
      "prise": 8331,
      "Ġoffices": 8332,
      "Ġcontributed": 8333,
      "Ġvehicle": 8334,
      "Ã©s": 8335,
      "ĠChall": 8336,
      "athon": 8337,
      "Ġneighborhood": 8338,
      "omas": 8339,
      "ĠBruce": 8340,
      "ĠDur": 8341,
      "ĠLieutenant": 8342,
      "ĠFern": 8343,
      "Ġends": 8344,
      "1969": 8345,
      "sÃ¬kÃ²": 8346,
      "Ġnewspapers": 8347,
      "ĠMoore": 8348,
      "Ġconsisting": 8349,
      "uct": 8350,
      "ãĤ": 8351,
      "Ġwo": 8352,
      "Ġbra": 8353,
      "Ġrefers": 8354,
      "ĠMountains": 8355,
      "Ġnormal": 8356,
      "SC": 8357,
      "Some": 8358,
      "iar": 8359,
      "mary": 8360,
      "Ġaid": 8361,
      "Ġsun": 8362,
      "aláº¹ÌĢ": 8363,
      "ĠBaptist": 8364,
      "ographical": 8365,
      "ĠMedicine": 8366,
      "icts": 8367,
      "ĠMission": 8368,
      "igation": 8369,
      "ĠJam": 8370,
      "fully": 8371,
      "ĠStudios": 8372,
      "Former": 8373,
      "ĠStandard": 8374,
      "term": 8375,
      "ieval": 8376,
      "Ġroof": 8377,
      "Ġiláº¹": 8378,
      "ĠArchitect": 8379,
      "fall": 8380,
      "ĠDetroit": 8381,
      "Ġinvolving": 8382,
      "Ġglass": 8383,
      "Ġpartnership": 8384,
      "\"The": 8385,
      "Ġmart": 8386,
      "ĠLeb": 8387,
      "antine": 8388,
      "ensi": 8389,
      "ooth": 8390,
      "ĠCommander": 8391,
      "Ġfollows": 8392,
      "Ġequal": 8393,
      "Ġorders": 8394,
      "lon": 8395,
      "where": 8396,
      "Ġl'": 8397,
      "Ġjul": 8398,
      "Ġá¹£Ãł": 8399,
      "ĠAgency": 8400,
      "Born": 8401,
      "Per": 8402,
      "anim": 8403,
      "racy": 8404,
      "ĠKad": 8405,
      "overty": 8406,
      "Ġpublications": 8407,
      "nergy": 8408,
      "Ġworldwide": 8409,
      "Ġliterary": 8410,
      "Medal": 8411,
      "Songs": 8412,
      "-V": 8413,
      "Ġastron": 8414,
      "inl": 8415,
      "Ġfashion": 8416,
      "Ġ18th": 8417,
      "Ġreflect": 8418,
      "Ġtechnical": 8419,
      "Ġpraised": 8420,
      "Ġbishop": 8421,
      "idel": 8422,
      "ĠÃ¬dÃ¡": 8423,
      "While": 8424,
      "Ġcriminal": 8425,
      "ÃŃÃł": 8426,
      "ĠDh": 8427,
      "ĠNet": 8428,
      "Ġrough": 8429,
      "Ġphase": 8430,
      "rapy": 8431,
      "ĠErn": 8432,
      "Ġuniversities": 8433,
      "then": 8434,
      "isf": 8435,
      "Ġdrin": 8436,
      "ĠAC": 8437,
      "ĠKo": 8438,
      "Ġoriláº¹": 8439,
      "Ġcontained": 8440,
      "ĠProf": 8441,
      "Ġiwe": 8442,
      "Ġruled": 8443,
      "Ġrecognition": 8444,
      "ĠHoward": 8445,
      "ĠMovie": 8446,
      "Railway": 8447,
      "Port": 8448,
      "ĠGre": 8449,
      "Ġvarian": 8450,
      "Ġdetermined": 8451,
      "eland": 8452,
      "tered": 8453,
      "Ġbegin": 8454,
      "Ġvoted": 8455,
      "appe": 8456,
      "Italian": 8457,
      "enny": 8458,
      "Ġdata-sort-value=\"0": 8459,
      "-th": 8460,
      "sÃ³": 8461,
      "ÈĻ": 8462,
      "Ġcas": 8463,
      "ĠNAS": 8464,
      "ĠWolf": 8465,
      "Ġstating": 8466,
      "Ġdeploy": 8467,
      "ĠVin": 8468,
      "redited": 8469,
      "Ġcollected": 8470,
      "Ġstyle=\"background:#": 8471,
      "ĠHampshire": 8472,
      "ĠPun": 8473,
      "imÃ¡": 8474,
      "ĠFace": 8475,
      "Ġadult": 8476,
      "ĠSquare": 8477,
      "Although": 8478,
      "Ġinvestigation": 8479,
      "Ġaká»įká»į": 8480,
      "ĠPittsburgh": 8481,
      "ĠKelly": 8482,
      "BN": 8483,
      "aire": 8484,
      "oa": 8485,
      "Ġn;": 8486,
      "aman": 8487,
      "anger": 8488,
      "Ġherself": 8489,
      "active": 8490,
      "Ġperforming": 8491,
      "align=\"center\"": 8492,
      "Ġproperties": 8493,
      "yÃłwÃ³": 8494,
      "Ġmerch": 8495,
      "52": 8496,
      "ĠCre": 8497,
      "rac": 8498,
      "ulus": 8499,
      "agram": 8500,
      "Ġrain": 8501,
      "Ġdoing": 8502,
      "Ġfeet": 8503,
      "incorporated": 8504,
      "ĠCampbell": 8505,
      "Ġnipa": 8506,
      "Buildings": 8507,
      "Di": 8508,
      "inburgh": 8509,
      "Ġbatter": 8510,
      "Ġdivers": 8511,
      "ĠRivers": 8512,
      "apted": 8513,
      "Ġentrance": 8514,
      "Ġreduce": 8515,
      "ester": 8516,
      "ĠTamil": 8517,
      "ĠlÃ²": 8518,
      "Ġanth": 8519,
      "ĠShi": 8520,
      "Ġslightly": 8521,
      "ĠBangladesh": 8522,
      "onomy": 8523,
      "Ġpione": 8524,
      "uta": 8525,
      "ĠVI": 8526,
      "Ġ37": 8527,
      "Ġ7th": 8528,
      "1979": 8529,
      "Ġstatement": 8530,
      "ĠKnight": 8531,
      "Political": 8532,
      "Ġabandoned": 8533,
      "ean": 8534,
      "Ġfom": 8535,
      "ĠFriend": 8536,
      "oyd": 8537,
      "argo": 8538,
      "ĠOrchestra": 8539,
      "-8": 8540,
      "ĠNash": 8541,
      "uda": 8542,
      "ĠOnly": 8543,
      "ĠConvention": 8544,
      "Ġexperien": 8545,
      "Ġanimated": 8546,
      "ĠKenya": 8547,
      "Ġconnection": 8548,
      "San": 8549,
      "tÃº": 8550,
      "aran": 8551,
      "Ġtoward": 8552,
      "Ġgar": 8553,
      "ĠEag": 8554,
      "Ġipo": 8555,
      "ĠMadrid": 8556,
      "untun": 8557,
      "Ġvirt": 8558,
      "-of": 8559,
      "69": 8560,
      "Final": 8561,
      "Ġped": 8562,
      "ĠPas": 8563,
      "isms": 8564,
      "ĠPoly": 8565,
      "Ġguard": 8566,
      "Album": 8567,
      "ĠIbadan": 8568,
      "49": 8569,
      "hat": 8570,
      "million": 8571,
      "ĠCer": 8572,
      "ĠPa": 8573,
      "rik": 8574,
      "Ġexerc": 8575,
      "ĠDonald": 8576,
      "ĠFranklin": 8577,
      "Ġnortheast": 8578,
      "set": 8579,
      "Ġwarn": 8580,
      "asily": 8581,
      "ĠLanc": 8582,
      "ĠKu": 8583,
      "apa": 8584,
      "apolis": 8585,
      "anned": 8586,
      "Ġá»Įba": 8587,
      "Ġintroduction": 8588,
      "Har": 8589,
      "Official": 8590,
      "actions": 8591,
      "Ġbor": 8592,
      "ĠCulture": 8593,
      "omi": 8594,
      "Ġdecades": 8595,
      "Im": 8596,
      "RI": 8597,
      "ĠLike": 8598,
      "ĠFel": 8599,
      "ĠFac": 8600,
      "ĠGa": 8601,
      "ÃºsÃ¹": 8602,
      "Ġfinishing": 8603,
      "ĠHarris": 8604,
      "ĠAgric": 8605,
      "ĠQuebec": 8606,
      "Ġtwelve": 8607,
      "ĠLawrence": 8608,
      "equ": 8609,
      "etime": 8610,
      "Ġreasons": 8611,
      "Ġrating": 8612,
      "ĠkÃł": 8613,
      "ĠAnti": 8614,
      "ournament": 8615,
      "Ġbrothers": 8616,
      "ĠColonel": 8617,
      "GA": 8618,
      "nik": 8619,
      "ĠMethod": 8620,
      "ĠkÃ¬": 8621,
      "itionally": 8622,
      "ĠIndonesia": 8623,
      "Japanese": 8624,
      "Ġjulá»į": 8625,
      "ĠRio": 8626,
      "erved": 8627,
      "Ġneeds": 8628,
      "Ġcauses": 8629,
      "enezuel": 8630,
      "Pre": 8631,
      "jÃ¹": 8632,
      "ĠMoon": 8633,
      "ulu": 8634,
      "Ġproced": 8635,
      "ĠThrough": 8636,
      "ĠMayor": 8637,
      "Ã¶r": 8638,
      "ĠdÃ¡ra": 8639,
      "ojoibi": 8640,
      "mÃ²": 8641,
      "Ġovers": 8642,
      "Ġinher": 8643,
      "ĠPur": 8644,
      "Ġsector": 8645,
      "ĠAlan": 8646,
      "Ġbands": 8647,
      "Ġnon-f": 8648,
      "text-align:": 8649,
      "ĠAlfred": 8650,
      "hing": 8651,
      "orf": 8652,
      "ĠGordon": 8653,
      "âĢĵ12": 8654,
      "Ġvalley": 8655,
      "hu": 8656,
      "ĠLow": 8657,
      "ĠWy": 8658,
      "Ġstil": 8659,
      "âĢĵpresent": 8660,
      "hibition": 8661,
      "Ġweapons": 8662,
      "Ġsand": 8663,
      "ĠLÃ¡": 8664,
      "Ġrare": 8665,
      "orne": 8666,
      "Ġsole": 8667,
      "Ġdefensive": 8668,
      "Ġdeputy": 8669,
      "ĠMaur": 8670,
      "Ġjournalists": 8671,
      "James": 8672,
      "lie": 8673,
      "Å¾": 8674,
      "ĠSport": 8675,
      "ĠPot": 8676,
      "Ġyour": 8677,
      "Ã¡nÃ¬": 8678,
      "idden": 8679,
      "Ġprotein": 8680,
      "ĠGrant": 8681,
      "ĠMrs": 8682,
      "Ġdetails": 8683,
      "-Ãºn": 8684,
      "bÃ©": 8685,
      "ku": 8686,
      "Ġĉ": 8687,
      "urday": 8688,
      "Ġgáº¹gáº¹": 8689,
      "ĠRugby": 8690,
      "Ġheard": 8691,
      "sect": 8692,
      "Ġrob": 8693,
      "ivalent": 8694,
      "Ġpassenger": 8695,
      "ttps": 8696,
      "ĠJesus": 8697,
      "Ġlaid": 8698,
      "âĢĵ13": 8699,
      "ocratic": 8700,
      "Ġsuccessfully": 8701,
      "-áº¹ÌĢyáº¹": 8702,
      "Ġinhabit": 8703,
      "Ġ49": 8704,
      "inae": 8705,
      "Ġsigns": 8706,
      "Ġdecre": 8707,
      "Ġmeasures": 8708,
      "ĠTrophy": 8709,
      "Ġenvironmental": 8710,
      "Ġheavily": 8711,
      "kÃ©": 8712,
      "oen": 8713,
      "Ġtrying": 8714,
      "Ġdates": 8715,
      "eli": 8716,
      "Ġflat": 8717,
      "Ġinvited": 8718,
      "ĠAustrian": 8719,
      "Ġanimal": 8720,
      "ĠBirmingham": 8721,
      "Ġagricultural": 8722,
      "OR": 8723,
      "rant": 8724,
      "Ġtrees": 8725,
      "ĠRub": 8726,
      "ĠHills": 8727,
      "ĠLouisiana": 8728,
      "Ġaffected": 8729,
      "UN": 8730,
      "fefef": 8731,
      "ĠSn": 8732,
      "ĠJay": 8733,
      "oples": 8734,
      "eget": 8735,
      "Ã¼n": 8736,
      "ĠwÃ¡yÃ©": 8737,
      "fefefe": 8738,
      "Mus": 8739,
      "hol": 8740,
      "ĠBible": 8741,
      "ando": 8742,
      "uchi": 8743,
      "Ġolu": 8744,
      "Ġ1901": 8745,
      "ĠAngl": 8746,
      "Ġpenal": 8747,
      "Ġencourag": 8748,
      "Villages": 8749,
      "ĠRot": 8750,
      "ĠWa": 8751,
      "ĠChamber": 8752,
      "Ġamb": 8753,
      "Ġquant": 8754,
      "Ġformal": 8755,
      "Ġbasic": 8756,
      "Ġmagn": 8757,
      "Ġbriefly": 8758,
      "ttps://": 8759,
      "Crit": 8760,
      "wig": 8761,
      "Ġtropical": 8762,
      "ĠTreat": 8763,
      "Ġconce": 8764,
      "Ġchoice": 8765,
      "acht": 8766,
      "ooks": 8767,
      "ĠOlÃ³": 8768,
      "Ġpataki": 8769,
      "Ġfactors": 8770,
      "Ġfunding": 8771,
      "Ġgirls": 8772,
      "ĠYugoslav": 8773,
      "páº¹ÌĢ": 8774,
      "Ġahead": 8775,
      "roc": 8776,
      "Ġanaly": 8777,
      "ikin": 8778,
      "Ġdelay": 8779,
      "ĠCommunist": 8780,
      "roke": 8781,
      "ĠPuerto": 8782,
      "ĠEqu": 8783,
      "ĠArena": 8784,
      "Ġimpl": 8785,
      "prison": 8786,
      "ĠEdinburgh": 8787,
      "Ġjoining": 8788,
      "Ġpromote": 8789,
      "Ġarchae": 8790,
      "Ġcausing": 8791,
      "pá»įlá»į": 8792,
      "Ġbehavior": 8793,
      "urricane": 8794,
      "ĠSky": 8795,
      "ĠDC": 8796,
      "ĠGri": 8797,
      "Ġcalls": 8798,
      "Ġbgcolor=#fefefe": 8799,
      "ĠCamer": 8800,
      "ĠBecause": 8801,
      "á»įá»įlu": 8802,
      "Ass": 8803,
      "fi": 8804,
      "Ġdar": 8805,
      "Ġhyp": 8806,
      "oche": 8807,
      "ĠVic": 8808,
      "amps": 8809,
      "Ġscript": 8810,
      "Ġgenera": 8811,
      "Ġbelief": 8812,
      "ĠPrincess": 8813,
      "Ġmemory": 8814,
      "Ġregistered": 8815,
      "Act": 8816,
      "Ġláº¹Ìģ": 8817,
      "ĠBart": 8818,
      "eties": 8819,
      "ĠRap": 8820,
      "ĠNav": 8821,
      "Ġones": 8822,
      "eston": 8823,
      "Ġkid": 8824,
      "1968": 8825,
      "Ġroads": 8826,
      "Ġgraduate": 8827,
      "-3=": 8828,
      "while": 8829,
      "ĠVienna": 8830,
      "ĠToday": 8831,
      "Ġconcluded": 8832,
      "kov": 8833,
      "ĠFurther": 8834,
      "ĠEarly": 8835,
      "oca": 8836,
      "ĠÃ¬rÃ²yÃ¬n": 8837,
      "angel": 8838,
      "ĠAdams": 8839,
      "Ġmaintained": 8840,
      "Ġprogramme": 8841,
      "Ġdescribes": 8842,
      "Ġadvoc": 8843,
      "ĠMatthew": 8844,
      "Ġjunior": 8845,
      "ĠDue": 8846,
      "ÃŃnÃŃ": 8847,
      "atherine": 8848,
      "Ġstandards": 8849,
      "Ġclosely": 8850,
      "ĠPrefecture": 8851,
      "Ġnegative": 8852,
      "Ġobserved": 8853,
      "ĠBernard": 8854,
      "Ġpilot": 8855,
      "Ġcorner": 8856,
      "Bel": 8857,
      "Mal": 8858,
      "ĠSet": 8859,
      "ivate": 8860,
      "ĠWard": 8861,
      "iph": 8862,
      "Ġilleg": 8863,
      "iverpool": 8864,
      "Ġoperate": 8865,
      "Ġpasses": 8866,
      "Ġ1904": 8867,
      "Ġfinds": 8868,
      "usalem": 8869,
      "Ġfranchise": 8870,
      "Histor": 8871,
      "atin": 8872,
      "Ġsoul": 8873,
      "ĠSoul": 8874,
      "Ã©n": 8875,
      "ĠKarl": 8876,
      "Ġaccused": 8877,
      "1972": 8878,
      "Ġimportance": 8879,
      "ĠMetropolitan": 8880,
      "ĠPlayer": 8881,
      "Ġentirely": 8882,
      "ĠAzerbai": 8883,
      "Ġpremiered": 8884,
      "low": 8885,
      "Ġuncle": 8886,
      "Ġresidence": 8887,
      "ĠAlliance": 8888,
      "Ġ1907": 8889,
      "ĠMPs": 8890,
      "IV": 8891,
      "Ġmental": 8892,
      "Ġhired": 8893,
      "ĠMiami": 8894,
      "ĠNation": 8895,
      "ĠLocal": 8896,
      "Ġrise": 8897,
      "ĠtÃŃtÃŃ": 8898,
      "Ġrot": 8899,
      "Ġ\"n": 8900,
      "ishops": 8901,
      "seud": 8902,
      "ussion": 8903,
      "Ġlocality": 8904,
      "ĠGlas": 8905,
      "Ġkilling": 8906,
      "going": 8907,
      "ĠAthletics": 8908,
      "ĠWelsh": 8909,
      "Robert": 8910,
      "zz": 8911,
      "Ġwatch": 8912,
      "ĠCensus": 8913,
      "ails": 8914,
      "Ġengines": 8915,
      "1967": 8916,
      "ourses": 8917,
      "ippi": 8918,
      "ĠControl": 8919,
      "ĠDefense": 8920,
      ")ĉ": 8921,
      "Sir": 8922,
      "mund": 8923,
      "vements": 8924,
      "anes": 8925,
      "Ġ\"t": 8926,
      "Ġselect": 8927,
      "borough": 8928,
      "ĠolÃ³á¹£Ã¨lÃº": 8929,
      "Ġinfluenced": 8930,
      "Ġemployees": 8931,
      "Ġguns": 8932,
      "life": 8933,
      "Ġtall": 8934,
      "ĠMem": 8935,
      "ĠReserve": 8936,
      "wÃ²rÃ¡n": 8937,
      "ĠAuthority": 8938,
      "mith": 8939,
      "Ġtor": 8940,
      "Ġayáº¹": 8941,
      "Ġfine": 8942,
      "Ġfram": 8943,
      "Ġment": 8944,
      "Ġkick": 8945,
      "owned": 8946,
      "ĠPlace": 8947,
      "Ġextrem": 8948,
      "Ġgrounds": 8949,
      "Ġrejected": 8950,
      "EFA": 8951,
      "Ð»": 8952,
      "oran": 8953,
      "enia": 8954,
      "ĠCook": 8955,
      "ĠDeath": 8956,
      "Ġ5:": 8957,
      "Ġinterests": 8958,
      "Ġreception": 8959,
      "ĠRecord": 8960,
      "ĠMontreal": 8961,
      "Ġregarded": 8962,
      "Footballers": 8963,
      "allel": 8964,
      "sáº¹": 8965,
      "leased": 8966,
      "Ġnit": 8967,
      "oty": 8968,
      "thodox": 8969,
      "Ġsynthe": 8970,
      "dÃłn": 8971,
      "Ã³p": 8972,
      "onds": 8973,
      "ĠPeru": 8974,
      "-level": 8975,
      "Ġise": 8976,
      "Ġshape": 8977,
      "Ġscenes": 8978,
      "Ġmarine": 8979,
      "Ġparticipate": 8980,
      "Ġlimit": 8981,
      "intend": 8982,
      "We": 8983,
      "Ġpull": 8984,
      "asa": 8985,
      "icial": 8986,
      "ĠMach": 8987,
      "Ġkol": 8988,
      "ĠKevin": 8989,
      "Ġprime": 8990,
      "ĠPeace": 8991,
      "Ġpurposes": 8992,
      "Ġimprove": 8993,
      "Ġlicens": 8994,
      "Ġhotel": 8995,
      "Bar": 8996,
      "Over": 8997,
      "Ġrear": 8998,
      "ĠKl": 8999,
      "ĠComics": 9000,
      "Ġgeneration": 9001,
      "Ġedge": 9002,
      "Ġfoundation": 9003,
      "Ġpractices": 9004,
      "Profess": 9005,
      "Ġbelieve": 9006,
      "aughters": 9007,
      "d6d6d6": 9008,
      "hematics": 9009,
      "Group": 9010,
      "ĠGib": 9011,
      "ĠEven": 9012,
      "azines": 9013,
      "hÃ¬n": 9014,
      "wá»įÌĢn": 9015,
      "Ġ...": 9016,
      "olly": 9017,
      "operation": 9018,
      "Ġmedicine": 9019,
      "Ġintelligence": 9020,
      "Ġpassing": 9021,
      "Ġprize": 9022,
      "ĠMilan": 9023,
      "ĠCarlos": 9024,
      "ĠBelgian": 9025,
      "ĠMcKinley": 9026,
      "E9E9E9": 9027,
      "ĠRow": 9028,
      "Ġrival": 9029,
      "ĠJordan": 9030,
      "Ġcontrolled": 9031,
      "Ġobtain": 9032,
      "Ġobinrin": 9033,
      "Ġcompete": 9034,
      "Ġ1903": 9035,
      "Production": 9036,
      "ĠSerbia": 9037,
      "ĠLam": 9038,
      "ĠStewart": 9039,
      "Ġsuperv": 9040,
      "ographics": 9041,
      "ĠBasketball": 9042,
      "November": 9043,
      "-6": 9044,
      "-Ãł": 9045,
      "Ju": 9046,
      "night": 9047,
      "Õ¡": 9048,
      "Ġprice": 9049,
      "ĠSeat": 9050,
      "imu": 9051,
      "ĠFord": 9052,
      "Ġcompilation": 9053,
      "Ġobl": 9054,
      "ĠOblast": 9055,
      "Ġcosts": 9056,
      "Ġbgcolor=#d6d6d6": 9057,
      "PP": 9058,
      "entially": 9059,
      "ĠNam": 9060,
      "ickn": 9061,
      "uki": 9062,
      "Ġspeak": 9063,
      "Ġneighbour": 9064,
      "gow": 9065,
      "including": 9066,
      "Ġinsc": 9067,
      "unc": 9068,
      "jÃ¡de": 9069,
      "ĠSenator": 9070,
      "ĠDefence": 9071,
      "Orig": 9072,
      "TS": 9073,
      "alÃ¡Ã¬": 9074,
      "omina": 9075,
      "isters": 9076,
      "âĢĵ14": 9077,
      "avier": 9078,
      "gbÃ³": 9079,
      "Ġ38": 9080,
      "Ġconcerns": 9081,
      "clusion": 9082,
      "FF": 9083,
      "hai": 9084,
      "Ġphen": 9085,
      "ĠCole": 9086,
      "Ġemp": 9087,
      "ushed": 9088,
      "elli": 9089,
      "ĠUpper": 9090,
      "Ġtranslation": 9091,
      "-Ch": 9092,
      "-14": 9093,
      "Major": 9094,
      "ĠTat": 9095,
      "ĠManu": 9096,
      "ocracy": 9097,
      "áº¹ÌĢláº¹ÌĢ": 9098,
      "ĠInvest": 9099,
      "ĠyÃł": 9100,
      "phone": 9101,
      "Ġá»įÌĢnÃł": 9102,
      "ĠsinimÃ¡": 9103,
      "ĠNazi": 9104,
      "nÃº": 9105,
      "Ġ@": 9106,
      "Ġtuntun": 9107,
      "orage": 9108,
      "abe": 9109,
      "aby": 9110,
      "Ġ39": 9111,
      "ĠWho": 9112,
      "1970": 9113,
      "Ġcarbon": 9114,
      "Ġcycle": 9115,
      "ĠGirls": 9116,
      "Ġseventh": 9117,
      "Ġtend": 9118,
      "ĠTu": 9119,
      "Ġchose": 9120,
      "Ġresistance": 9121,
      "oyÃ¨": 9122,
      "rint": 9123,
      "Ġproved": 9124,
      "Ġfactor": 9125,
      "Ġbot": 9126,
      "utation": 9127,
      "ĠKer": 9128,
      "Ġspecifically": 9129,
      "Ġdoor": 9130,
      "Ġ1898": 9131,
      "kÃ³so": 9132,
      "Ġinvestment": 9133,
      "Ġcredited": 9134,
      "ĠCleveland": 9135,
      "Ġsust": 9136,
      "ĠML": 9137,
      "ĠVideo": 9138,
      "Ġaggreg": 9139,
      "Ġseconds": 9140,
      "1975": 9141,
      "Ġairport": 9142,
      "Ġvisual": 9143,
      "Ġkáº¹rin": 9144,
      "Ġinjured": 9145,
      "Ġcharges": 9146,
      "Ġcommitted": 9147,
      "EE": 9148,
      "Pol": 9149,
      "Ġcrown": 9150,
      "iler": 9151,
      "Ġhair": 9152,
      "ĠLiverpool": 9153,
      "estyle": 9154,
      "âĢĵ195": 9155,
      "Ġ\"w": 9156,
      "anging": 9157,
      "ĠMarie": 9158,
      "issippi": 9159,
      "Ġpoly": 9160,
      "fficient": 9161,
      "ĠNaijÃ¡": 9162,
      "Ġcomposers": 9163,
      "League": 9164,
      "August": 9165,
      "eness": 9166,
      "Ġoun": 9167,
      "isode": 9168,
      "ĠTig": 9169,
      "Ġsubmar": 9170,
      "Ġsynd": 9171,
      "1976": 9172,
      "Ġcricketers": 9173,
      "Bra": 9174,
      "after": 9175,
      "eda": 9176,
      "Ġpros": 9177,
      "Ġreserve": 9178,
      "Ġ150": 9179,
      "Ġcalling": 9180,
      "Ġzone": 9181,
      "ĠRD1-score": 9182,
      "Ġlegislation": 9183,
      "June": 9184,
      "bar": 9185,
      "Ġcam": 9186,
      "Ġyan": 9187,
      "Ġrenew": 9188,
      "Ġsubstant": 9189,
      "ĠCarn": 9190,
      "ĠBÃ¡": 9191,
      "ĠBoys": 9192,
      "ĠDance": 9193,
      "umi": 9194,
      "Ġpriest": 9195,
      "Ġviews": 9196,
      "-Y": 9197,
      "Tube": 9198,
      "mat": 9199,
      "o\"": 9200,
      "ĠAM": 9201,
      "ĠMurray": 9202,
      "olid": 9203,
      "ĠRace": 9204,
      "Ġadvent": 9205,
      "Ġincorporated": 9206,
      "Ġjustice": 9207,
      "Ġhill": 9208,
      "ĠNord": 9209,
      "Ġka": 9210,
      "Ġunc": 9211,
      "Ġimprison": 9212,
      "Ġagba": 9213,
      "ĠBefore": 9214,
      "ĠBenin": 9215,
      "Ġfavour": 9216,
      "Ġadjacent": 9217,
      "ĠHawaii": 9218,
      "ĠI'": 9219,
      "irt": 9220,
      "Ġeasily": 9221,
      "abase": 9222,
      "ĠÃłjá»į": 9223,
      "Ġ48": 9224,
      "ĠBras": 9225,
      "ĠAtlanta": 9226,
      "Ġdelivered": 9227,
      "Ġmilit": 9228,
      "emble": 9229,
      "ĠSchools": 9230,
      "Ġelectronic": 9231,
      "urring": 9232,
      "gbegbe": 9233,
      "Ġsymbol": 9234,
      "-12": 9235,
      "Sub": 9236,
      "rus": 9237,
      "Ġá»įn": 9238,
      "ĠLGBT": 9239,
      "ĠKw": 9240,
      "ovation": 9241,
      ".ĠĠĊĊ": 9242,
      "Ġleads": 9243,
      "Ġhighway": 9244,
      "Ġstrateg": 9245,
      "Ġcontributions": 9246,
      "ĠIsraeli": 9247,
      "haps": 9248,
      "pir": 9249,
      "ĠSierra": 9250,
      "ilk": 9251,
      "Ġgain": 9252,
      "essions": 9253,
      "ĠyÃłn": 9254,
      "Ġshall": 9255,
      "Ġ1895": 9256,
      "Alumni": 9257,
      "Ġopportunity": 9258,
      "ĠBus": 9259,
      "ĠGÃ³mÃ¬nÃł": 9260,
      "ĠOur": 9261,
      "Ġcomed": 9262,
      "Ġarmed": 9263,
      "Ġtrained": 9264,
      "Ġflo": 9265,
      "Ġshowing": 9266,
      "Ġalign=\"left\"": 9267,
      "ĠEnvironment": 9268,
      "Ġdocuments": 9269,
      "ĠJerusalem": 9270,
      "Ġpoetry": 9271,
      "ĠKennedy": 9272,
      "BI": 9273,
      "gÃ¡": 9274,
      "hard": 9275,
      "wall": 9276,
      "orial": 9277,
      "Ġcrisis": 9278,
      "elia": 9279,
      "Ġgarden": 9280,
      "Ġresign": 9281,
      "ĠScar": 9282,
      "ermont": 9283,
      "Ġanniversary": 9284,
      "Ġpublishing": 9285,
      "Ġdevice": 9286,
      "Ġcourts": 9287,
      "Ġcriticized": 9288,
      "ranean": 9289,
      "Ġosere": 9290,
      "ĠSel": 9291,
      "ĠCrit": 9292,
      "ĠLang": 9293,
      "abled": 9294,
      "ugar": 9295,
      "Ġexact": 9296,
      "inner": 9297,
      "ĠWhat": 9298,
      "Ġ1896": 9299,
      "ĠHollywood": 9300,
      "ĠChairman": 9301,
      "ON": 9302,
      "father": 9303,
      "iate": 9304,
      "tÃ¡": 9305,
      "uary": 9306,
      "ĠpÃ¡": 9307,
      "Ġboys": 9308,
      "Ġhun": 9309,
      "ĠJason": 9310,
      "apes": 9311,
      "merce": 9312,
      "Ġelectoral": 9313,
      "ĠMorgan": 9314,
      "Ġtranslated": 9315,
      "Ġsteel": 9316,
      "alÃ¡Ã¬sÃŃ": 9317,
      "September": 9318,
      "To": 9319,
      "tÃ©": 9320,
      "Ġsale": 9321,
      "isan": 9322,
      "ĠChen": 9323,
      "ĠLyn": 9324,
      "ĠFÃ¡": 9325,
      "ĠFall": 9326,
      "ĠJose": 9327,
      "Ġeffic": 9328,
      "ĠÃĴun": 9329,
      "Ġmyth": 9330,
      "span=": 9331,
      "Iá¹£áº¹Ìģ": 9332,
      "san": 9333,
      "ĠGarden": 9334,
      "ĠWright": 9335,
      "Ġ\"Y": 9336,
      "Ġteen": 9337,
      "onder": 9338,
      "Ġactual": 9339,
      "insula": 9340,
      "Ġ16th": 9341,
      "irds": 9342,
      "Ġaccompan": 9343,
      "ĠEconomic": 9344,
      "3rd": 9345,
      "Works": 9346,
      "Ġreality": 9347,
      "opo": 9348,
      "Ġplot": 9349,
      "anta": 9350,
      "Ġstarts": 9351,
      "1966": 9352,
      "Ġpossibly": 9353,
      "Spanish": 9354,
      "ĠBroadcast": 9355,
      "Ġscholars": 9356,
      "3=": 9357,
      "pers": 9358,
      "iláº¹ÌĢ": 9359,
      "oustic": 9360,
      "ĠRud": 9361,
      "acc": 9362,
      "Ġabaut": 9363,
      "fta": 9364,
      "Ġgetting": 9365,
      "Ġranking": 9366,
      "-the": 9367,
      "from": 9368,
      "part": 9369,
      "ued": 9370,
      "iche": 9371,
      "ĠChem": 9372,
      "Ġsections": 9373,
      "ellite": 9374,
      "Ġ1930s": 9375,
      "rett": 9376,
      "Ġextension": 9377,
      "1977": 9378,
      "Ġbit": 9379,
      "icit": 9380,
      "ĠPrad": 9381,
      "ĠNort": 9382,
      "Ġuniform": 9383,
      "Ġquite": 9384,
      "Ġ1899": 9385,
      "ĠSecret": 9386,
      "owski": 9387,
      "Ġpainters": 9388,
      "Ġosu": 9389,
      "ĠAer": 9390,
      "Ġiy": 9391,
      "Ġfactory": 9392,
      "Ġhomes": 9393,
      "Ġcollaboration": 9394,
      "ĠFinnish": 9395,
[...]
